{
  "vocab_size": 5000,
  "special_tokens": [
    "<PAD>",
    "<UNK>",
    "<BOS>",
    "<EOS>",
    "<CLS>",
    "<SEP>"
  ],
  "vocab": {
    "<PAD>": 0,
    "<UNK>": 1,
    "<BOS>": 2,
    "<EOS>": 3,
    "<CLS>": 4,
    "<SEP>": 5,
    "#": 6,
    "'": 7,
    "+": 8,
    ",": 9,
    "-": 10,
    ".": 11,
    "/": 12,
    "0": 13,
    "1": 14,
    "2": 15,
    "3": 16,
    "5": 17,
    "7": 18,
    "8": 19,
    ":": 20,
    "</w>": 21,
    "A": 22,
    "B": 23,
    "C": 24,
    "D": 25,
    "E": 26,
    "F": 27,
    "G": 28,
    "H": 29,
    "I": 30,
    "J": 31,
    "K": 32,
    "L": 33,
    "M": 34,
    "N": 35,
    "O": 36,
    "P": 37,
    "Q": 38,
    "R": 39,
    "S": 40,
    "T": 41,
    "U": 42,
    "V": 43,
    "W": 44,
    "X": 45,
    "Y": 46,
    "Z": 47,
    "a": 48,
    "b": 49,
    "c": 50,
    "d": 51,
    "e": 52,
    "f": 53,
    "g": 54,
    "h": 55,
    "i": 56,
    "j": 57,
    "k": 58,
    "l": 59,
    "m": 60,
    "n": 61,
    "o": 62,
    "p": 63,
    "q": 64,
    "r": 65,
    "s": 66,
    "t": 67,
    "u": 68,
    "v": 69,
    "w": 70,
    "x": 71,
    "y": 72,
    "z": 73,
    "ա": 74,
    "բ": 75,
    "գ": 76,
    "դ": 77,
    "ե": 78,
    "զ": 79,
    "է": 80,
    "ը": 81,
    "թ": 82,
    "ժ": 83,
    "ի": 84,
    "լ": 85,
    "խ": 86,
    "ծ": 87,
    "կ": 88,
    "հ": 89,
    "ղ": 90,
    "ճ": 91,
    "մ": 92,
    "յ": 93,
    "ն": 94,
    "շ": 95,
    "ո": 96,
    "չ": 97,
    "պ": 98,
    "ջ": 99,
    "ռ": 100,
    "ս": 101,
    "վ": 102,
    "տ": 103,
    "ր": 104,
    "ց": 105,
    "ւ": 106,
    "ք": 107,
    "և": 108,
    "ն</w>": 109,
    "ին</w>": 110,
    ".</w>": 111,
    "ու": 112,
    "է</w>": 113,
    "s</w>": 114,
    "ին": 115,
    "եր": 116,
    "մի": 117,
    "այ": 118,
    "ել": 119,
    "ինին</w>": 120,
    "ti": 121,
    "ից": 122,
    "իցվ": 123,
    "տ</w>": 124,
    "on": 125,
    "e</w>": 126,
    "ակ": 127,
    "es</w>": 128,
    "in": 129,
    "մա": 130,
    "երիցվ": 131,
    "երիցվել": 132,
    "en": 133,
    "er": 134,
    "ավ": 135,
    "յու": 136,
    "աս": 137,
    "մե": 138,
    "տեր": 139,
    "լայ": 140,
    "an": 141,
    "լայն</w>": 142,
    "նին</w>": 143,
    "or": 144,
    "ար": 145,
    "tion": 146,
    "ած": 147,
    "ութ": 148,
    "ությու": 149,
    "մու": 150,
    "իմ": 151,
    "ուր": 152,
    "ավաս": 153,
    "հավաս": 154,
    "al": 155,
    "ան</w>": 156,
    "ած</w>": 157,
    "re": 158,
    "մետ</w>": 159,
    "վուր": 160,
    "միվուր": 161,
    "ro": 162,
    "t</w>": 163,
    "միվուր</w>": 164,
    "իմն": 165,
    "հիմն": 166,
    "ությունին</w>": 167,
    "at": 168,
    "ինտեր": 169,
    "y</w>": 170,
    "շակ": 171,
    "միշակ": 172,
    "երիցվելին</w>": 173,
    "d</w>": 174,
    "երիցվելինին</w>": 175,
    "մուն</w>": 176,
    "մամուն</w>": 177,
    "g</w>": 178,
    "ամ": 179,
    "բար": 180,
    "tion</w>": 181,
    "թամ": 182,
    "st": 183,
    "ar": 184,
    "թամին</w>": 185,
    "հիմնան</w>": 186,
    "բարած</w>": 187,
    "եղ": 188,
    "եղն": 189,
    "ic": 190,
    "ս</w>": 191,
    "այինին</w>": 192,
    "միս": 193,
    "ing</w>": 194,
    "նե": 195,
    "ինտերնե": 196,
    "եղնությունին</w>": 197,
    "որ": 198,
    "it": 199,
    "de": 200,
    "ac": 201,
    "pro": 202,
    "միշակ</w>": 203,
    "al</w>": 204,
    "ur": 205,
    "ec": 206,
    "si": 207,
    "մաշ": 208,
    "մոր": 209,
    "մորք": 210,
    "co": 211,
    "ation</w>": 212,
    "ինտերնետ": 213,
    "հավաստեր": 214,
    "հավաստ</w>": 215,
    "ի</w>": 216,
    "em": 217,
    "մետ": 218,
    "for": 219,
    "ts</w>": 220,
    "մետիցվ": 221,
    "մետիցված</w>": 222,
    "տր": 223,
    "նել": 224,
    "lo": 225,
    "di": 226,
    "to": 227,
    "ent</w>": 228,
    "մաշին": 229,
    "ական</w>": 230,
    "th": 231,
    "as": 232,
    "ման": 233,
    "vi": 234,
    "միշակնել": 235,
    "ag": 236,
    "մանկ": 237,
    "միսեր": 238,
    "es": 239,
    "er</w>": 240,
    "հաս": 241,
    "միշակնելինին</w>": 242,
    "ատր": 243,
    "հասատր": 244,
    "ed</w>": 245,
    "tr": 246,
    "կար": 247,
    "ավել": 248,
    "ինտերնետին</w>": 249,
    ":</w>": 250,
    "հայ": 251,
    "ab": 252,
    "մուս</w>": 253,
    "միյու": 254,
    "միյուն</w>": 255,
    "հավաստերին</w>": 256,
    "միսերին</w>": 257,
    "ինտերե": 258,
    "անին</w>": 259,
    "and</w>": 260,
    "ինտերես</w>": 261,
    "մաշինայինին</w>": 262,
    "լե": 263,
    "մանկայինին</w>": 264,
    "զու": 265,
    "զուչ": 266,
    "զուչինին</w>": 267,
    "ականին</w>": 268,
    "mp": 269,
    "լեզուչինին</w>": 270,
    "հասատրականին</w>": 271,
    "ավել</w>": 272,
    "տեղնությունին</w>": 273,
    "կարությունին</w>": 274,
    "a</w>": 275,
    "թեղնությունին</w>": 276,
    "մորքին</w>": 277,
    "հայտ</w>": 278,
    "ակական</w>": 279,
    "con": 280,
    "հիմնակական</w>": 281,
    "us": 282,
    "tions</w>": 283,
    "un": 284,
    "el": 285,
    "to</w>": 286,
    "mo": 287,
    "ex": 288,
    "-</w>": 289,
    "il": 290,
    "ul": 291,
    "ity</w>": 292,
    "ce</w>": 293,
    "h</w>": 294,
    "iz": 295,
    "m</w>": 296,
    "str": 297,
    "dat": 298,
    "pl": 299,
    "մորք</w>": 300,
    "ուվ": 301,
    "միսուվ": 302,
    "on</w>": 303,
    "res": 304,
    "me": 305,
    "ver": 306,
    "del": 307,
    "tin": 308,
    "vid": 309,
    "man": 310,
    "ter": 311,
    "comp": 312,
    "for</w>": 313,
    "le": 314,
    "qu": 315,
    "of": 316,
    "ում": 317,
    "ra": 318,
    "հավաստ": 319,
    "uc": 320,
    "ates</w>": 321,
    "ut": 322,
    "ch": 323,
    "in</w>": 324,
    "provid": 325,
    "tic": 326,
    "առ": 327,
    "data</w>": 328,
    "ություն</w>": 329,
    "միսուվ</w>": 330,
    "model": 331,
    "le</w>": 332,
    "is": 333,
    "op": 334,
    "tw": 335,
    "im": 336,
    "tiv": 337,
    "ում</w>": 338,
    "of</w>": 339,
    "tim": 340,
    "sy": 341,
    "ting</w>": 342,
    "ds</w>": 343,
    "ain": 344,
    "ք</w>": 345,
    "մաշին</w>": 346,
    "ures</w>": 347,
    "կր": 348,
    "կրիմ": 349,
    "կրիմ</w>": 350,
    "ap": 351,
    "ne": 352,
    "բարա": 353,
    "provides</w>": 354,
    "ol": 355,
    "ies</w>": 356,
    "ces": 357,
    "ինտերնետ</w>": 358,
    "ri": 359,
    "հավաստի</w>": 360,
    "ինտերնետի</w>": 361,
    "ure</w>": 362,
    "ents</w>": 363,
    "ks</w>": 364,
    "ly</w>": 365,
    "age</w>": 366,
    "stem": 367,
    "ang": 368,
    "ent": 369,
    "կառ": 370,
    "կառի": 371,
    "erv": 372,
    "en</w>": 373,
    "բարաք</w>": 374,
    "ային</w>": 375,
    "system": 376,
    "fic": 377,
    "կառիտ</w>": 378,
    "այր": 379,
    "per": 380,
    "k</w>": 381,
    "su": 382,
    "մայր": 383,
    "les</w>": 384,
    "enc": 385,
    "ըն</w>": 386,
    "մայրում</w>": 387,
    "li": 388,
    "be": 389,
    "form": 390,
    "ement</w>": 391,
    "se": 392,
    "հավաստեր</w>": 393,
    "com": 394,
    "ate</w>": 395,
    "ad": 396,
    "no": 397,
    "ations</w>": 398,
    "ev": 399,
    "manag": 400,
    "sion</w>": 401,
    "tec": 402,
    "id": 403,
    "models</w>": 404,
    "or</w>": 405,
    "wit": 406,
    "log": 407,
    "ers</w>": 408,
    "ou": 409,
    "serv": 410,
    "ib": 411,
    "abil": 412,
    "lear": 413,
    "w</w>": 414,
    "tive</w>": 415,
    "able</w>": 416,
    "ան": 417,
    "ներ": 418,
    "ses</w>": 419,
    "ization</w>": 420,
    "enti": 421,
    "sc": 422,
    "red": 423,
    "ence</w>": 424,
    "mul": 425,
    "gra": 426,
    "ning</w>": 427,
    "struc": 428,
    "proces": 429,
    "fro": 430,
    "ug": 431,
    "cont": 432,
    "optim": 433,
    "from</w>": 434,
    "ines</w>": 435,
    "ig": 436,
    "wor": 437,
    "sh": 438,
    "ic</w>": 439,
    "management</w>": 440,
    "de</w>": 441,
    "ans": 442,
    "unc": 443,
    "ef": 444,
    "and": 445,
    "inter": 446,
    "systems</w>": 447,
    "l</w>": 448,
    "ment</w>": 449,
    "ener": 450,
    "tu": 451,
    "gn": 452,
    "ical</w>": 453,
    "ss</w>": 454,
    "strib": 455,
    "om": 456,
    "ture</w>": 457,
    "meas": 458,
    "te": 459,
    "ir": 460,
    "p</w>": 461,
    "որ</w>": 462,
    "par": 463,
    "sp": 464,
    "cre": 465,
    "oc": 466,
    "izes</w>": 467,
    "իր": 468,
    "tional</w>": 469,
    "angu": 470,
    "distrib": 471,
    "twor": 472,
    "trans": 473,
    "ine</w>": 474,
    "am": 475,
    "po": 476,
    "alu": 477,
    "learning</w>": 478,
    "func": 479,
    "with</w>": 480,
    "ability</w>": 481,
    "udi": 482,
    "թամինին</w>": 483,
    "տվ": 484,
    "ություն": 485,
    "ory</w>": 486,
    "rec": 487,
    "ve": 488,
    "formation</w>": 489,
    "la": 490,
    "sign": 491,
    "langu": 492,
    "roug": 493,
    "միսել": 494,
    "ps</w>": 495,
    "the</w>": 496,
    "our": 497,
    "In": 498,
    "logy</w>": 499,
    "ties</w>": 500,
    "ens": 501,
    "throug": 502,
    "ման</w>": 503,
    "այու": 504,
    "ext</w>": 505,
    "servic": 506,
    "fies</w>": 507,
    "ross</w>": 508,
    "networ": 509,
    "ution</w>": 510,
    "ess</w>": 511,
    "through</w>": 512,
    "jec": 513,
    "tic</w>": 514,
    "into</w>": 515,
    "train": 516,
    "eb": 517,
    "are</w>": 518,
    "ves</w>": 519,
    "language</w>": 520,
    "Con": 521,
    "ob": 522,
    "cl": 523,
    "ph": 524,
    "աման</w>": 525,
    "sts</w>": 526,
    "trac": 527,
    "ally</w>": 528,
    "pu": 529,
    "ables</w>": 530,
    "aly": 531,
    "studi": 532,
    "Re": 533,
    "ari": 534,
    "ency</w>": 535,
    "stor": 536,
    "prob": 537,
    "measures</w>": 538,
    "model</w>": 539,
    "gan": 540,
    "code</w>": 541,
    "identi": 542,
    "o</w>": 543,
    "I</w>": 544,
    "ance</w>": 545,
    "աց": 546,
    "gener": 547,
    "pres": 548,
    "pr": 549,
    "analy": 550,
    "the": 551,
    "an</w>": 552,
    "th</w>": 553,
    "twe": 554,
    "studies</w>": 555,
    "ar</w>": 556,
    "information</w>": 557,
    "ach": 558,
    "ge</w>": 559,
    "ous</w>": 560,
    "ment": 561,
    "պա": 562,
    "ve</w>": 563,
    "pat": 564,
    "ces</w>": 565,
    "tes": 566,
    "au": 567,
    "text</w>": 568,
    "duc": 569,
    "այած": 570,
    "organ": 571,
    "across</w>": 572,
    "uses</w>": 573,
    "fer": 574,
    "multi": 575,
    "ple</w>": 576,
    "velo": 577,
    "tern": 578,
    "ural</w>": 579,
    "pre": 580,
    "betwe": 581,
    "between</w>": 582,
    "այածտ</w>": 583,
    "requ": 584,
    "optimization</w>": 585,
    "as</w>": 586,
    "ms</w>": 587,
    "acces": 588,
    "ing": 589,
    "system</w>": 590,
    "develo": 591,
    "ch</w>": 592,
    "fici": 593,
    "loc": 594,
    "միվուրին</w>": 595,
    "մաշինային</w>": 596,
    "der": 597,
    "fac": 598,
    "vari": 599,
    "mm": 600,
    "սայածտ</w>": 601,
    "comm": 602,
    "sion": 603,
    "forman": 604,
    "formance</w>": 605,
    "time</w>": 606,
    "networks</w>": 607,
    "տրան": 608,
    "տրանս": 609,
    "տրանսզ": 610,
    "միսելին</w>": 611,
    "ten": 612,
    "eb</w>": 613,
    "ality</w>": 614,
    "ail": 615,
    "ics</w>": 616,
    "def": 617,
    "st</w>": 618,
    "ron": 619,
    "են": 620,
    "reg": 621,
    "ha": 622,
    "progra": 623,
    "comput": 624,
    "sa": 625,
    "multiple</w>": 626,
    "հավաստերի</w>": 627,
    "ated</w>": 628,
    "its</w>": 629,
    "se</w>": 630,
    "compu": 631,
    "develop": 632,
    "gor": 633,
    "մանկային</w>": 634,
    "user</w>": 635,
    "ages</w>": 636,
    "ci": 637,
    "impro": 638,
    "Dat": 639,
    "objec": 640,
    "scri": 641,
    "arch": 642,
    "ase</w>": 643,
    "ws</w>": 644,
    "Co": 645,
    "training</w>": 646,
    "պր": 647,
    "ճո": 648,
    "use</w>": 649,
    "ication</w>": 650,
    "ty</w>": 651,
    "processes</w>": 652,
    "el</w>": 653,
    "eng": 654,
    "ine": 655,
    "dep": 656,
    "ավուր": 657,
    "առղ": 658,
    "առղեն": 659,
    "bo": 660,
    "reduc": 661,
    "lem": 662,
    "ls</w>": 663,
    "tom": 664,
    "gro": 665,
    "ors</w>": 666,
    "cur": 667,
    "comb": 668,
    "ments</w>": 669,
    "հար": 670,
    "ներ</w>": 671,
    "տեղն": 672,
    "ծիր": 673,
    "emory</w>": 674,
    "fra": 675,
    "oper": 676,
    "contro": 677,
    "fe": 678,
    "bu": 679,
    "sing</w>": 680,
    "performance</w>": 681,
    "tech": 682,
    "por": 683,
    "valu": 684,
    "appl": 685,
    "chang": 686,
    "sec": 687,
    "ences</w>": 688,
    "redic": 689,
    "produc": 690,
    "sis</w>": 691,
    "ust": 692,
    "պրած": 693,
    "տրանսզոր</w>": 694,
    "մաս": 695,
    "Pro": 696,
    "dis": 697,
    "king</w>": 698,
    "development</w>": 699,
    "arch</w>": 700,
    "red</w>": 701,
    "հարաս": 702,
    "նվ": 703,
    "ծիրավուր": 704,
    "ակ</w>": 705,
    "հասատրական</w>": 706,
    "ke": 707,
    "lec": 708,
    "fi": 709,
    "ities</w>": 710,
    "ho": 711,
    "ensures</w>": 712,
    "AI</w>": 713,
    "effici": 714,
    "very</w>": 715,
    "ed": 716,
    "plan": 717,
    "tinu": 718,
    "predic": 719,
    "elec": 720,
    "by</w>": 721,
    "actions</w>": 722,
    "նոր</w>": 723,
    "թամին": 724,
    "թամիններ</w>": 725,
    "իմաս": 726,
    "կական</w>": 727,
    "ներին</w>": 728,
    "structure</w>": 729,
    "service</w>": 730,
    "at</w>": 731,
    "Data</w>": 732,
    "computing</w>": 733,
    "distribut": 734,
    "sol": 735,
    "pon": 736,
    "out</w>": 737,
    "պատվ": 738,
    "հայտ": 739,
    "նվի": 740,
    "նվիգ": 741,
    "ծիրավուրկ": 742,
    "ծիրավուրկակ</w>": 743,
    "ացն</w>": 744,
    "sib": 745,
    "ational</w>": 746,
    "cap": 747,
    "mat": 748,
    "pattern": 749,
    "low</w>": 750,
    "hand": 751,
    "tical</w>": 752,
    "sign</w>": 753,
    "ative</w>": 754,
    "gu": 755,
    "uman": 756,
    "als</w>": 757,
    "web</w>": 758,
    "bi": 759,
    "sions</w>": 760,
    "he": 761,
    "Th": 762,
    "gh": 763,
    "out": 764,
    "ted</w>": 765,
    "with": 766,
    "ffer": 767,
    "հարաստ</w>": 768,
    "տեղնկական</w>": 769,
    "կարություն</w>": 770,
    "col": 771,
    "protec": 772,
    "reduces</w>": 773,
    "tics</w>": 774,
    "mal": 775,
    "tre": 776,
    "up": 777,
    "nec": 778,
    "ology</w>": 779,
    "conver": 780,
    "clas": 781,
    "sequ": 782,
    "exec": 783,
    "խակ": 784,
    "խակն": 785,
    "խակնաման</w>": 786,
    "պուր": 787,
    "պուրգ": 788,
    "պուրգայու": 789,
    "ությունի</w>": 790,
    "testing</w>": 791,
    "detec": 792,
    "sist": 793,
    "tho": 794,
    "simul": 795,
    "ad</w>": 796,
    "ge": 797,
    "access</w>": 798,
    "yp": 799,
    "A</w>": 800,
    "now": 801,
    "ases</w>": 802,
    "autom": 803,
    "fin": 804,
    "programm": 805,
    "cel": 806,
    "cor": 807,
    "identifies</w>": 808,
    "fication</w>": 809,
    "ter</w>": 810,
    "իրան</w>": 811,
    "ճով": 812,
    "memory</w>": 813,
    "provide</w>": 814,
    "mar": 815,
    "form</w>": 816,
    "enables</w>": 817,
    "shi": 818,
    "ast": 819,
    "content</w>": 820,
    "dge</w>": 821,
    "descri": 822,
    "fec": 823,
    "av": 824,
    "urity</w>": 825,
    "programming</w>": 826,
    "gy</w>": 827,
    "ith": 828,
    "havi": 829,
    "ource</w>": 830,
    "combines</w>": 831,
    "itec": 832,
    "utions</w>": 833,
    "նվիգային</w>": 834,
    "ումին</w>": 835,
    "ությունըն</w>": 836,
    "commun": 837,
    "processing</w>": 838,
    "ard</w>": 839,
    "ual</w>": 840,
    "gorith": 841,
    "behavi": 842,
    "metho": 843,
    "uman</w>": 844,
    "կիրան</w>": 845,
    "պրածք</w>": 846,
    "պատվում</w>": 847,
    "իմասություն</w>": 848,
    "ize</w>": 849,
    "visu": 850,
    "work</w>": 851,
    "veri": 852,
    "oftw": 853,
    "oftware</w>": 854,
    "problem": 855,
    "ate": 856,
    "ary</w>": 857,
    "ir</w>": 858,
    "tinuous</w>": 859,
    "ver</w>": 860,
    "min": 861,
    "analysis</w>": 862,
    "ial</w>": 863,
    "differ": 864,
    "architec": 865,
    "միսեր</w>": 866,
    "ստվ": 867,
    "առղենություն</w>": 868,
    "միսուվություն</w>": 869,
    "igh": 870,
    "ased</w>": 871,
    "buil": 872,
    "services</w>": 873,
    "techno": 874,
    "creates</w>": 875,
    "L</w>": 876,
    "functions</w>": 877,
    "fic</w>": 878,
    "design</w>": 879,
    "end": 880,
    "describ": 881,
    "ters</w>": 882,
    "ression</w>": 883,
    "behavior</w>": 884,
    "respon": 885,
    "ord": 886,
    "mon": 887,
    "using</w>": 888,
    "tain": 889,
    "էնել": 890,
    "էնել</w>": 891,
    "tention</w>": 892,
    "quality</w>": 893,
    "lou": 894,
    "ite</w>": 895,
    "n</w>": 896,
    "T</w>": 897,
    "evalu": 898,
    "x</w>": 899,
    "nowle": 900,
    "nowledge</w>": 901,
    "improves</w>": 902,
    "ocu": 903,
    "spec": 904,
    "teg": 905,
    "The</w>": 906,
    "lows</w>": 907,
    "exper": 908,
    "algorith": 909,
    "tri": 910,
    "tures</w>": 911,
    "ding</w>": 912,
    "connec": 913,
    "tas": 914,
    "is</w>": 915,
    "viron": 916,
    "ճաման</w>": 917,
    "հայտըն</w>": 918,
    "պուրգայուն</w>": 919,
    "ճն": 920,
    "based</w>": 921,
    "P</w>": 922,
    "abilities</w>": 923,
    "act</w>": 924,
    "imp": 925,
    "main": 926,
    "ings</w>": 927,
    "rela": 928,
    "tual</w>": 929,
    "prev": 930,
    "datab": 931,
    "te</w>": 932,
    "technology</w>": 933,
    "repres": 934,
    "generation</w>": 935,
    "En": 936,
    "ստվություն</w>": 937,
    "ay": 938,
    "ility</w>": 939,
    "software</w>": 940,
    "est</w>": 941,
    "deli": 942,
    "riv": 943,
    "function</w>": 944,
    "ices</w>": 945,
    "usin": 946,
    "ances</w>": 947,
    "over": 948,
    "ely</w>": 949,
    "architecture</w>": 950,
    "lex": 951,
    "երիցվել</w>": 952,
    "new</w>": 953,
    "consist": 954,
    "inpu": 955,
    "lay": 956,
    "posi": 957,
    "stores</w>": 958,
    "af": 959,
    "compar": 960,
    "changes</w>": 961,
    "ce": 962,
    "ain</w>": 963,
    "pe": 964,
    "ources</w>": 965,
    "yn": 966,
    "sub": 967,
    "distribution</w>": 968,
    "und": 969,
    "human</w>": 970,
    "curr": 971,
    "without</w>": 972,
    "lev": 973,
    "neural</w>": 974,
    "tok": 975,
    "ճնտր": 976,
    "users</w>": 977,
    "loud</w>": 978,
    "plat": 979,
    "tives</w>": 980,
    "problems</w>": 981,
    "operations</w>": 982,
    "handles</w>": 983,
    "du": 984,
    "effec": 985,
    "ep</w>": 986,
    "ess": 987,
    "security</w>": 988,
    "lab": 989,
    "bac": 990,
    "Ne": 991,
    "usiness</w>": 992,
    "environ": 993,
    "ital</w>": 994,
    "բարաք": 995,
    "ինի</w>": 996,
    "communication</w>": 997,
    "Qu": 998,
    "control</w>": 999,
    "compon": 1000,
    "metr": 1001,
    "itor": 1002,
    "stand": 1003,
    "ze</w>": 1004,
    "ering</w>": 1005,
    "integ": 1006,
    "divid": 1007,
    "tracks</w>": 1008,
    "all": 1009,
    "energy</w>": 1010,
    "vers</w>": 1011,
    "quan": 1012,
    "computation</w>": 1013,
    "classi": 1014,
    "loy": 1015,
    "attention</w>": 1016,
    "samp": 1017,
    "dig": 1018,
    "ելին</w>": 1019,
    "ճնտրություն</w>": 1020,
    "ently</w>": 1021,
    "collec": 1022,
    "fail": 1023,
    "um</w>": 1024,
    "tum</w>": 1025,
    "am</w>": 1026,
    "zes</w>": 1027,
    "alizes</w>": 1028,
    "define</w>": 1029,
    "patterns</w>": 1030,
    "ns</w>": 1031,
    "oo": 1032,
    "AP": 1033,
    "f</w>": 1034,
    "continuous</w>": 1035,
    "tests</w>": 1036,
    "over</w>": 1037,
    "ized</w>": 1038,
    "mental</w>": 1039,
    "ile</w>": 1040,
    "tasks</w>": 1041,
    "grou": 1042,
    "ect": 1043,
    "events</w>": 1044,
    "ma": 1045,
    "execution</w>": 1046,
    "uring</w>": 1047,
    "it</w>": 1048,
    "միսելինին</w>": 1049,
    "ori": 1050,
    "int": 1051,
    "ular</w>": 1052,
    "Lo": 1053,
    "spe": 1054,
    "prac": 1055,
    "fy</w>": 1056,
    "St": 1057,
    "lim": 1058,
    "ser": 1059,
    "knowledge</w>": 1060,
    "err": 1061,
    "engine": 1062,
    "Ch": 1063,
    "itoring</w>": 1064,
    "ys": 1065,
    "reli": 1066,
    "sive</w>": 1067,
    "ke</w>": 1068,
    "transform": 1069,
    "ater</w>": 1070,
    "relation": 1071,
    "relationshi": 1072,
    "test</w>": 1073,
    "source</w>": 1074,
    "inv": 1075,
    "objects</w>": 1076,
    "para": 1077,
    "variables</w>": 1078,
    "speci": 1079,
    "conf": 1080,
    ",</w>": 1081,
    "ճով</w>": 1082,
    "rel": 1083,
    "ավելին</w>": 1084,
    "Ac": 1085,
    "frastructure</w>": 1086,
    "S</w>": 1087,
    "int</w>": 1088,
    "sibility</w>": 1089,
    "states</w>": 1090,
    "anc": 1091,
    "deci": 1092,
    "interfac": 1093,
    "components</w>": 1094,
    "ore</w>": 1095,
    "flow</w>": 1096,
    "action</w>": 1097,
    "value</w>": 1098,
    "dev": 1099,
    "mach": 1100,
    "describes</w>": 1101,
    "store</w>": 1102,
    "all</w>": 1103,
    "values</w>": 1104,
    "bl": 1105,
    "earch</w>": 1106,
    "search</w>": 1107,
    "ements</w>": 1108
  },
  "merges": [
    [
      "ն",
      "</w>"
    ],
    [
      "ի",
      "ն</w>"
    ],
    [
      ".",
      "</w>"
    ],
    [
      "ո",
      "ւ"
    ],
    [
      "է",
      "</w>"
    ],
    [
      "s",
      "</w>"
    ],
    [
      "ի",
      "ն"
    ],
    [
      "ե",
      "ր"
    ],
    [
      "մ",
      "ի"
    ],
    [
      "ա",
      "յ"
    ],
    [
      "ե",
      "լ"
    ],
    [
      "ին",
      "ին</w>"
    ],
    [
      "t",
      "i"
    ],
    [
      "ի",
      "ց"
    ],
    [
      "ից",
      "վ"
    ],
    [
      "տ",
      "</w>"
    ],
    [
      "o",
      "n"
    ],
    [
      "e",
      "</w>"
    ],
    [
      "ա",
      "կ"
    ],
    [
      "e",
      "s</w>"
    ],
    [
      "i",
      "n"
    ],
    [
      "մ",
      "ա"
    ],
    [
      "եր",
      "իցվ"
    ],
    [
      "երիցվ",
      "ել"
    ],
    [
      "e",
      "n"
    ],
    [
      "e",
      "r"
    ],
    [
      "ա",
      "վ"
    ],
    [
      "յ",
      "ու"
    ],
    [
      "ա",
      "ս"
    ],
    [
      "մ",
      "ե"
    ],
    [
      "տ",
      "եր"
    ],
    [
      "լ",
      "այ"
    ],
    [
      "a",
      "n"
    ],
    [
      "լայ",
      "ն</w>"
    ],
    [
      "ն",
      "ին</w>"
    ],
    [
      "o",
      "r"
    ],
    [
      "ա",
      "ր"
    ],
    [
      "ti",
      "on"
    ],
    [
      "ա",
      "ծ"
    ],
    [
      "ու",
      "թ"
    ],
    [
      "ութ",
      "յու"
    ],
    [
      "մ",
      "ու"
    ],
    [
      "ի",
      "մ"
    ],
    [
      "ու",
      "ր"
    ],
    [
      "ավ",
      "աս"
    ],
    [
      "հ",
      "ավաս"
    ],
    [
      "a",
      "l"
    ],
    [
      "ա",
      "ն</w>"
    ],
    [
      "ած",
      "</w>"
    ],
    [
      "r",
      "e"
    ],
    [
      "մե",
      "տ</w>"
    ],
    [
      "վ",
      "ուր"
    ],
    [
      "մի",
      "վուր"
    ],
    [
      "r",
      "o"
    ],
    [
      "t",
      "</w>"
    ],
    [
      "միվուր",
      "</w>"
    ],
    [
      "իմ",
      "ն"
    ],
    [
      "հ",
      "իմն"
    ],
    [
      "ությու",
      "նին</w>"
    ],
    [
      "a",
      "t"
    ],
    [
      "ին",
      "տեր"
    ],
    [
      "y",
      "</w>"
    ],
    [
      "շ",
      "ակ"
    ],
    [
      "մի",
      "շակ"
    ],
    [
      "երիցվել",
      "ին</w>"
    ],
    [
      "d",
      "</w>"
    ],
    [
      "երիցվել",
      "ինին</w>"
    ],
    [
      "մու",
      "ն</w>"
    ],
    [
      "մա",
      "մուն</w>"
    ],
    [
      "g",
      "</w>"
    ],
    [
      "ա",
      "մ"
    ],
    [
      "բ",
      "ար"
    ],
    [
      "tion",
      "</w>"
    ],
    [
      "թ",
      "ամ"
    ],
    [
      "s",
      "t"
    ],
    [
      "a",
      "r"
    ],
    [
      "թամ",
      "ին</w>"
    ],
    [
      "հիմն",
      "ան</w>"
    ],
    [
      "բար",
      "ած</w>"
    ],
    [
      "ե",
      "ղ"
    ],
    [
      "եղ",
      "ն"
    ],
    [
      "i",
      "c"
    ],
    [
      "ս",
      "</w>"
    ],
    [
      "այ",
      "ինին</w>"
    ],
    [
      "մի",
      "ս"
    ],
    [
      "in",
      "g</w>"
    ],
    [
      "ն",
      "ե"
    ],
    [
      "ինտեր",
      "նե"
    ],
    [
      "եղն",
      "ությունին</w>"
    ],
    [
      "ո",
      "ր"
    ],
    [
      "i",
      "t"
    ],
    [
      "d",
      "e"
    ],
    [
      "a",
      "c"
    ],
    [
      "p",
      "ro"
    ],
    [
      "միշակ",
      "</w>"
    ],
    [
      "al",
      "</w>"
    ],
    [
      "u",
      "r"
    ],
    [
      "e",
      "c"
    ],
    [
      "s",
      "i"
    ],
    [
      "մա",
      "շ"
    ],
    [
      "մ",
      "որ"
    ],
    [
      "մոր",
      "ք"
    ],
    [
      "c",
      "o"
    ],
    [
      "a",
      "tion</w>"
    ],
    [
      "ինտերնե",
      "տ"
    ],
    [
      "հավաս",
      "տեր"
    ],
    [
      "հավաս",
      "տ</w>"
    ],
    [
      "ի",
      "</w>"
    ],
    [
      "e",
      "m"
    ],
    [
      "մե",
      "տ"
    ],
    [
      "f",
      "or"
    ],
    [
      "t",
      "s</w>"
    ],
    [
      "մետ",
      "իցվ"
    ],
    [
      "մետիցվ",
      "ած</w>"
    ],
    [
      "տ",
      "ր"
    ],
    [
      "ն",
      "ել"
    ],
    [
      "l",
      "o"
    ],
    [
      "d",
      "i"
    ],
    [
      "t",
      "o"
    ],
    [
      "en",
      "t</w>"
    ],
    [
      "մաշ",
      "ին"
    ],
    [
      "ակ",
      "ան</w>"
    ],
    [
      "t",
      "h"
    ],
    [
      "a",
      "s"
    ],
    [
      "մա",
      "ն"
    ],
    [
      "v",
      "i"
    ],
    [
      "միշակ",
      "նել"
    ],
    [
      "a",
      "g"
    ],
    [
      "ման",
      "կ"
    ],
    [
      "միս",
      "եր"
    ],
    [
      "e",
      "s"
    ],
    [
      "er",
      "</w>"
    ],
    [
      "հ",
      "աս"
    ],
    [
      "միշակնել",
      "ինին</w>"
    ],
    [
      "ա",
      "տր"
    ],
    [
      "հաս",
      "ատր"
    ],
    [
      "e",
      "d</w>"
    ],
    [
      "t",
      "r"
    ],
    [
      "կ",
      "ար"
    ],
    [
      "ավ",
      "ել"
    ],
    [
      "ինտերնետ",
      "ին</w>"
    ],
    [
      ":",
      "</w>"
    ],
    [
      "հ",
      "այ"
    ],
    [
      "a",
      "b"
    ],
    [
      "մու",
      "ս</w>"
    ],
    [
      "մի",
      "յու"
    ],
    [
      "միյու",
      "ն</w>"
    ],
    [
      "հավաստեր",
      "ին</w>"
    ],
    [
      "միսեր",
      "ին</w>"
    ],
    [
      "ինտեր",
      "ե"
    ],
    [
      "ա",
      "նին</w>"
    ],
    [
      "an",
      "d</w>"
    ],
    [
      "ինտերե",
      "ս</w>"
    ],
    [
      "մաշին",
      "այինին</w>"
    ],
    [
      "լ",
      "ե"
    ],
    [
      "մանկ",
      "այինին</w>"
    ],
    [
      "զ",
      "ու"
    ],
    [
      "զու",
      "չ"
    ],
    [
      "զուչ",
      "ինին</w>"
    ],
    [
      "ակ",
      "անին</w>"
    ],
    [
      "m",
      "p"
    ],
    [
      "լե",
      "զուչինին</w>"
    ],
    [
      "հասատր",
      "ականին</w>"
    ],
    [
      "ավել",
      "</w>"
    ],
    [
      "տ",
      "եղնությունին</w>"
    ],
    [
      "կար",
      "ությունին</w>"
    ],
    [
      "a",
      "</w>"
    ],
    [
      "թ",
      "եղնությունին</w>"
    ],
    [
      "մորք",
      "ին</w>"
    ],
    [
      "հայ",
      "տ</w>"
    ],
    [
      "ակ",
      "ական</w>"
    ],
    [
      "c",
      "on"
    ],
    [
      "հիմն",
      "ակական</w>"
    ],
    [
      "u",
      "s"
    ],
    [
      "tion",
      "s</w>"
    ],
    [
      "u",
      "n"
    ],
    [
      "e",
      "l"
    ],
    [
      "to",
      "</w>"
    ],
    [
      "m",
      "o"
    ],
    [
      "e",
      "x"
    ],
    [
      "-",
      "</w>"
    ],
    [
      "i",
      "l"
    ],
    [
      "u",
      "l"
    ],
    [
      "it",
      "y</w>"
    ],
    [
      "c",
      "e</w>"
    ],
    [
      "h",
      "</w>"
    ],
    [
      "i",
      "z"
    ],
    [
      "m",
      "</w>"
    ],
    [
      "st",
      "r"
    ],
    [
      "d",
      "at"
    ],
    [
      "p",
      "l"
    ],
    [
      "մորք",
      "</w>"
    ],
    [
      "ու",
      "վ"
    ],
    [
      "միս",
      "ուվ"
    ],
    [
      "on",
      "</w>"
    ],
    [
      "re",
      "s"
    ],
    [
      "m",
      "e"
    ],
    [
      "v",
      "er"
    ],
    [
      "de",
      "l"
    ],
    [
      "ti",
      "n"
    ],
    [
      "vi",
      "d"
    ],
    [
      "m",
      "an"
    ],
    [
      "t",
      "er"
    ],
    [
      "co",
      "mp"
    ],
    [
      "for",
      "</w>"
    ],
    [
      "l",
      "e"
    ],
    [
      "q",
      "u"
    ],
    [
      "o",
      "f"
    ],
    [
      "ու",
      "մ"
    ],
    [
      "r",
      "a"
    ],
    [
      "հավաս",
      "տ"
    ],
    [
      "u",
      "c"
    ],
    [
      "at",
      "es</w>"
    ],
    [
      "u",
      "t"
    ],
    [
      "c",
      "h"
    ],
    [
      "in",
      "</w>"
    ],
    [
      "pro",
      "vid"
    ],
    [
      "ti",
      "c"
    ],
    [
      "ա",
      "ռ"
    ],
    [
      "dat",
      "a</w>"
    ],
    [
      "ությու",
      "ն</w>"
    ],
    [
      "միսուվ",
      "</w>"
    ],
    [
      "mo",
      "del"
    ],
    [
      "l",
      "e</w>"
    ],
    [
      "i",
      "s"
    ],
    [
      "o",
      "p"
    ],
    [
      "t",
      "w"
    ],
    [
      "i",
      "m"
    ],
    [
      "ti",
      "v"
    ],
    [
      "ում",
      "</w>"
    ],
    [
      "of",
      "</w>"
    ],
    [
      "ti",
      "m"
    ],
    [
      "s",
      "y"
    ],
    [
      "tin",
      "g</w>"
    ],
    [
      "d",
      "s</w>"
    ],
    [
      "a",
      "in"
    ],
    [
      "ք",
      "</w>"
    ],
    [
      "մաշ",
      "ին</w>"
    ],
    [
      "ur",
      "es</w>"
    ],
    [
      "կ",
      "ր"
    ],
    [
      "կր",
      "իմ"
    ],
    [
      "կրիմ",
      "</w>"
    ],
    [
      "a",
      "p"
    ],
    [
      "n",
      "e"
    ],
    [
      "բար",
      "ա"
    ],
    [
      "provid",
      "es</w>"
    ],
    [
      "o",
      "l"
    ],
    [
      "i",
      "es</w>"
    ],
    [
      "c",
      "es"
    ],
    [
      "ինտերնե",
      "տ</w>"
    ],
    [
      "r",
      "i"
    ],
    [
      "հավաստ",
      "ի</w>"
    ],
    [
      "ինտերնետ",
      "ի</w>"
    ],
    [
      "ur",
      "e</w>"
    ],
    [
      "en",
      "ts</w>"
    ],
    [
      "k",
      "s</w>"
    ],
    [
      "l",
      "y</w>"
    ],
    [
      "ag",
      "e</w>"
    ],
    [
      "st",
      "em"
    ],
    [
      "an",
      "g"
    ],
    [
      "en",
      "t"
    ],
    [
      "կ",
      "առ"
    ],
    [
      "կառ",
      "ի"
    ],
    [
      "er",
      "v"
    ],
    [
      "en",
      "</w>"
    ],
    [
      "բարա",
      "ք</w>"
    ],
    [
      "այ",
      "ին</w>"
    ],
    [
      "sy",
      "stem"
    ],
    [
      "f",
      "ic"
    ],
    [
      "կառի",
      "տ</w>"
    ],
    [
      "այ",
      "ր"
    ],
    [
      "p",
      "er"
    ],
    [
      "k",
      "</w>"
    ],
    [
      "s",
      "u"
    ],
    [
      "մ",
      "այր"
    ],
    [
      "l",
      "es</w>"
    ],
    [
      "en",
      "c"
    ],
    [
      "ը",
      "ն</w>"
    ],
    [
      "մայր",
      "ում</w>"
    ],
    [
      "l",
      "i"
    ],
    [
      "b",
      "e"
    ],
    [
      "for",
      "m"
    ],
    [
      "em",
      "ent</w>"
    ],
    [
      "s",
      "e"
    ],
    [
      "հավաստեր",
      "</w>"
    ],
    [
      "co",
      "m"
    ],
    [
      "at",
      "e</w>"
    ],
    [
      "a",
      "d"
    ],
    [
      "n",
      "o"
    ],
    [
      "a",
      "tions</w>"
    ],
    [
      "e",
      "v"
    ],
    [
      "man",
      "ag"
    ],
    [
      "si",
      "on</w>"
    ],
    [
      "t",
      "ec"
    ],
    [
      "i",
      "d"
    ],
    [
      "model",
      "s</w>"
    ],
    [
      "or",
      "</w>"
    ],
    [
      "w",
      "it"
    ],
    [
      "lo",
      "g"
    ],
    [
      "er",
      "s</w>"
    ],
    [
      "o",
      "u"
    ],
    [
      "s",
      "erv"
    ],
    [
      "i",
      "b"
    ],
    [
      "ab",
      "il"
    ],
    [
      "le",
      "ar"
    ],
    [
      "w",
      "</w>"
    ],
    [
      "tiv",
      "e</w>"
    ],
    [
      "ab",
      "le</w>"
    ],
    [
      "ա",
      "ն"
    ],
    [
      "ն",
      "եր"
    ],
    [
      "s",
      "es</w>"
    ],
    [
      "iz",
      "ation</w>"
    ],
    [
      "en",
      "ti"
    ],
    [
      "s",
      "c"
    ],
    [
      "re",
      "d"
    ],
    [
      "en",
      "ce</w>"
    ],
    [
      "m",
      "ul"
    ],
    [
      "g",
      "ra"
    ],
    [
      "n",
      "ing</w>"
    ],
    [
      "str",
      "uc"
    ],
    [
      "pro",
      "ces"
    ],
    [
      "f",
      "ro"
    ],
    [
      "u",
      "g"
    ],
    [
      "con",
      "t"
    ],
    [
      "op",
      "tim"
    ],
    [
      "fro",
      "m</w>"
    ],
    [
      "in",
      "es</w>"
    ],
    [
      "i",
      "g"
    ],
    [
      "w",
      "or"
    ],
    [
      "s",
      "h"
    ],
    [
      "ic",
      "</w>"
    ],
    [
      "manag",
      "ement</w>"
    ],
    [
      "d",
      "e</w>"
    ],
    [
      "an",
      "s"
    ],
    [
      "un",
      "c"
    ],
    [
      "e",
      "f"
    ],
    [
      "an",
      "d"
    ],
    [
      "in",
      "ter"
    ],
    [
      "system",
      "s</w>"
    ],
    [
      "l",
      "</w>"
    ],
    [
      "m",
      "ent</w>"
    ],
    [
      "en",
      "er"
    ],
    [
      "t",
      "u"
    ],
    [
      "g",
      "n"
    ],
    [
      "ic",
      "al</w>"
    ],
    [
      "s",
      "s</w>"
    ],
    [
      "str",
      "ib"
    ],
    [
      "o",
      "m"
    ],
    [
      "t",
      "ure</w>"
    ],
    [
      "me",
      "as"
    ],
    [
      "t",
      "e"
    ],
    [
      "i",
      "r"
    ],
    [
      "p",
      "</w>"
    ],
    [
      "որ",
      "</w>"
    ],
    [
      "p",
      "ar"
    ],
    [
      "s",
      "p"
    ],
    [
      "c",
      "re"
    ],
    [
      "o",
      "c"
    ],
    [
      "iz",
      "es</w>"
    ],
    [
      "ի",
      "ր"
    ],
    [
      "tion",
      "al</w>"
    ],
    [
      "ang",
      "u"
    ],
    [
      "di",
      "strib"
    ],
    [
      "tw",
      "or"
    ],
    [
      "tr",
      "ans"
    ],
    [
      "in",
      "e</w>"
    ],
    [
      "a",
      "m"
    ],
    [
      "p",
      "o"
    ],
    [
      "al",
      "u"
    ],
    [
      "lear",
      "ning</w>"
    ],
    [
      "f",
      "unc"
    ],
    [
      "wit",
      "h</w>"
    ],
    [
      "abil",
      "ity</w>"
    ],
    [
      "u",
      "di"
    ],
    [
      "թամ",
      "ինին</w>"
    ],
    [
      "տ",
      "վ"
    ],
    [
      "ությու",
      "ն"
    ],
    [
      "or",
      "y</w>"
    ],
    [
      "re",
      "c"
    ],
    [
      "v",
      "e"
    ],
    [
      "form",
      "ation</w>"
    ],
    [
      "l",
      "a"
    ],
    [
      "si",
      "gn"
    ],
    [
      "l",
      "angu"
    ],
    [
      "ro",
      "ug"
    ],
    [
      "միս",
      "ել"
    ],
    [
      "p",
      "s</w>"
    ],
    [
      "th",
      "e</w>"
    ],
    [
      "o",
      "ur"
    ],
    [
      "I",
      "n"
    ],
    [
      "log",
      "y</w>"
    ],
    [
      "ti",
      "es</w>"
    ],
    [
      "en",
      "s"
    ],
    [
      "th",
      "roug"
    ],
    [
      "մա",
      "ն</w>"
    ],
    [
      "այ",
      "ու"
    ],
    [
      "ex",
      "t</w>"
    ],
    [
      "serv",
      "ic"
    ],
    [
      "f",
      "ies</w>"
    ],
    [
      "ro",
      "ss</w>"
    ],
    [
      "ne",
      "twor"
    ],
    [
      "u",
      "tion</w>"
    ],
    [
      "es",
      "s</w>"
    ],
    [
      "throug",
      "h</w>"
    ],
    [
      "j",
      "ec"
    ],
    [
      "tic",
      "</w>"
    ],
    [
      "in",
      "to</w>"
    ],
    [
      "tr",
      "ain"
    ],
    [
      "e",
      "b"
    ],
    [
      "ar",
      "e</w>"
    ],
    [
      "v",
      "es</w>"
    ],
    [
      "langu",
      "age</w>"
    ],
    [
      "C",
      "on"
    ],
    [
      "o",
      "b"
    ],
    [
      "c",
      "l"
    ],
    [
      "p",
      "h"
    ],
    [
      "ա",
      "ման</w>"
    ],
    [
      "st",
      "s</w>"
    ],
    [
      "tr",
      "ac"
    ],
    [
      "al",
      "ly</w>"
    ],
    [
      "p",
      "u"
    ],
    [
      "ab",
      "les</w>"
    ],
    [
      "al",
      "y"
    ],
    [
      "st",
      "udi"
    ],
    [
      "R",
      "e"
    ],
    [
      "ar",
      "i"
    ],
    [
      "enc",
      "y</w>"
    ],
    [
      "st",
      "or"
    ],
    [
      "pro",
      "b"
    ],
    [
      "meas",
      "ures</w>"
    ],
    [
      "model",
      "</w>"
    ],
    [
      "g",
      "an"
    ],
    [
      "co",
      "de</w>"
    ],
    [
      "id",
      "enti"
    ],
    [
      "o",
      "</w>"
    ],
    [
      "I",
      "</w>"
    ],
    [
      "an",
      "ce</w>"
    ],
    [
      "ա",
      "ց"
    ],
    [
      "g",
      "ener"
    ],
    [
      "p",
      "res"
    ],
    [
      "p",
      "r"
    ],
    [
      "an",
      "aly"
    ],
    [
      "th",
      "e"
    ],
    [
      "an",
      "</w>"
    ],
    [
      "th",
      "</w>"
    ],
    [
      "tw",
      "e"
    ],
    [
      "studi",
      "es</w>"
    ],
    [
      "ar",
      "</w>"
    ],
    [
      "in",
      "formation</w>"
    ],
    [
      "ac",
      "h"
    ],
    [
      "g",
      "e</w>"
    ],
    [
      "ou",
      "s</w>"
    ],
    [
      "m",
      "ent"
    ],
    [
      "պ",
      "ա"
    ],
    [
      "v",
      "e</w>"
    ],
    [
      "p",
      "at"
    ],
    [
      "c",
      "es</w>"
    ],
    [
      "t",
      "es"
    ],
    [
      "a",
      "u"
    ],
    [
      "t",
      "ext</w>"
    ],
    [
      "d",
      "uc"
    ],
    [
      "այ",
      "ած"
    ],
    [
      "or",
      "gan"
    ],
    [
      "ac",
      "ross</w>"
    ],
    [
      "us",
      "es</w>"
    ],
    [
      "f",
      "er"
    ],
    [
      "mul",
      "ti"
    ],
    [
      "pl",
      "e</w>"
    ],
    [
      "ve",
      "lo"
    ],
    [
      "ter",
      "n"
    ],
    [
      "ur",
      "al</w>"
    ],
    [
      "p",
      "re"
    ],
    [
      "be",
      "twe"
    ],
    [
      "betwe",
      "en</w>"
    ],
    [
      "այած",
      "տ</w>"
    ],
    [
      "re",
      "qu"
    ],
    [
      "optim",
      "ization</w>"
    ],
    [
      "a",
      "s</w>"
    ],
    [
      "m",
      "s</w>"
    ],
    [
      "ac",
      "ces"
    ],
    [
      "in",
      "g"
    ],
    [
      "system",
      "</w>"
    ],
    [
      "de",
      "velo"
    ],
    [
      "c",
      "h</w>"
    ],
    [
      "fic",
      "i"
    ],
    [
      "lo",
      "c"
    ],
    [
      "միվուր",
      "ին</w>"
    ],
    [
      "մաշին",
      "ային</w>"
    ],
    [
      "d",
      "er"
    ],
    [
      "f",
      "ac"
    ],
    [
      "v",
      "ari"
    ],
    [
      "m",
      "m"
    ],
    [
      "ս",
      "այածտ</w>"
    ],
    [
      "com",
      "m"
    ],
    [
      "si",
      "on"
    ],
    [
      "for",
      "man"
    ],
    [
      "forman",
      "ce</w>"
    ],
    [
      "tim",
      "e</w>"
    ],
    [
      "networ",
      "ks</w>"
    ],
    [
      "տր",
      "ան"
    ],
    [
      "տրան",
      "ս"
    ],
    [
      "տրանս",
      "զ"
    ],
    [
      "միսել",
      "ին</w>"
    ],
    [
      "t",
      "en"
    ],
    [
      "eb",
      "</w>"
    ],
    [
      "al",
      "ity</w>"
    ],
    [
      "a",
      "il"
    ],
    [
      "ic",
      "s</w>"
    ],
    [
      "de",
      "f"
    ],
    [
      "s",
      "t</w>"
    ],
    [
      "r",
      "on"
    ],
    [
      "ե",
      "ն"
    ],
    [
      "re",
      "g"
    ],
    [
      "h",
      "a"
    ],
    [
      "pro",
      "gra"
    ],
    [
      "comp",
      "ut"
    ],
    [
      "s",
      "a"
    ],
    [
      "multi",
      "ple</w>"
    ],
    [
      "հավաստեր",
      "ի</w>"
    ],
    [
      "at",
      "ed</w>"
    ],
    [
      "it",
      "s</w>"
    ],
    [
      "s",
      "e</w>"
    ],
    [
      "comp",
      "u"
    ],
    [
      "develo",
      "p"
    ],
    [
      "g",
      "or"
    ],
    [
      "մանկ",
      "ային</w>"
    ],
    [
      "us",
      "er</w>"
    ],
    [
      "ag",
      "es</w>"
    ],
    [
      "c",
      "i"
    ],
    [
      "im",
      "pro"
    ],
    [
      "D",
      "at"
    ],
    [
      "ob",
      "jec"
    ],
    [
      "sc",
      "ri"
    ],
    [
      "ar",
      "ch"
    ],
    [
      "as",
      "e</w>"
    ],
    [
      "w",
      "s</w>"
    ],
    [
      "C",
      "o"
    ],
    [
      "train",
      "ing</w>"
    ],
    [
      "պ",
      "ր"
    ],
    [
      "ճ",
      "ո"
    ],
    [
      "us",
      "e</w>"
    ],
    [
      "ic",
      "ation</w>"
    ],
    [
      "t",
      "y</w>"
    ],
    [
      "proces",
      "ses</w>"
    ],
    [
      "el",
      "</w>"
    ],
    [
      "en",
      "g"
    ],
    [
      "in",
      "e"
    ],
    [
      "de",
      "p"
    ],
    [
      "ավ",
      "ուր"
    ],
    [
      "առ",
      "ղ"
    ],
    [
      "առղ",
      "են"
    ],
    [
      "b",
      "o"
    ],
    [
      "red",
      "uc"
    ],
    [
      "l",
      "em"
    ],
    [
      "l",
      "s</w>"
    ],
    [
      "to",
      "m"
    ],
    [
      "g",
      "ro"
    ],
    [
      "or",
      "s</w>"
    ],
    [
      "c",
      "ur"
    ],
    [
      "com",
      "b"
    ],
    [
      "m",
      "ents</w>"
    ],
    [
      "հ",
      "ար"
    ],
    [
      "ներ",
      "</w>"
    ],
    [
      "տ",
      "եղն"
    ],
    [
      "ծ",
      "իր"
    ],
    [
      "em",
      "ory</w>"
    ],
    [
      "f",
      "ra"
    ],
    [
      "op",
      "er"
    ],
    [
      "cont",
      "ro"
    ],
    [
      "f",
      "e"
    ],
    [
      "b",
      "u"
    ],
    [
      "s",
      "ing</w>"
    ],
    [
      "per",
      "formance</w>"
    ],
    [
      "tec",
      "h"
    ],
    [
      "p",
      "or"
    ],
    [
      "v",
      "alu"
    ],
    [
      "ap",
      "pl"
    ],
    [
      "ch",
      "ang"
    ],
    [
      "s",
      "ec"
    ],
    [
      "enc",
      "es</w>"
    ],
    [
      "red",
      "ic"
    ],
    [
      "pro",
      "duc"
    ],
    [
      "si",
      "s</w>"
    ],
    [
      "u",
      "st"
    ],
    [
      "պր",
      "ած"
    ],
    [
      "տրանսզ",
      "որ</w>"
    ],
    [
      "մա",
      "ս"
    ],
    [
      "P",
      "ro"
    ],
    [
      "di",
      "s"
    ],
    [
      "k",
      "ing</w>"
    ],
    [
      "develop",
      "ment</w>"
    ],
    [
      "ar",
      "ch</w>"
    ],
    [
      "re",
      "d</w>"
    ],
    [
      "հար",
      "աս"
    ],
    [
      "ն",
      "վ"
    ],
    [
      "ծիր",
      "ավուր"
    ],
    [
      "ակ",
      "</w>"
    ],
    [
      "հասատր",
      "ական</w>"
    ],
    [
      "k",
      "e"
    ],
    [
      "l",
      "ec"
    ],
    [
      "f",
      "i"
    ],
    [
      "i",
      "ties</w>"
    ],
    [
      "h",
      "o"
    ],
    [
      "ens",
      "ures</w>"
    ],
    [
      "A",
      "I</w>"
    ],
    [
      "ef",
      "fici"
    ],
    [
      "ver",
      "y</w>"
    ],
    [
      "e",
      "d"
    ],
    [
      "pl",
      "an"
    ],
    [
      "tin",
      "u"
    ],
    [
      "p",
      "redic"
    ],
    [
      "el",
      "ec"
    ],
    [
      "b",
      "y</w>"
    ],
    [
      "ac",
      "tions</w>"
    ],
    [
      "ն",
      "որ</w>"
    ],
    [
      "թամ",
      "ին"
    ],
    [
      "թամին",
      "ներ</w>"
    ],
    [
      "ի",
      "մաս"
    ],
    [
      "կ",
      "ական</w>"
    ],
    [
      "ներ",
      "ին</w>"
    ],
    [
      "struc",
      "ture</w>"
    ],
    [
      "servic",
      "e</w>"
    ],
    [
      "a",
      "t</w>"
    ],
    [
      "Dat",
      "a</w>"
    ],
    [
      "compu",
      "ting</w>"
    ],
    [
      "distrib",
      "ut"
    ],
    [
      "s",
      "ol"
    ],
    [
      "p",
      "on"
    ],
    [
      "ou",
      "t</w>"
    ],
    [
      "պա",
      "տվ"
    ],
    [
      "հայ",
      "տ"
    ],
    [
      "նվ",
      "ի"
    ],
    [
      "նվի",
      "գ"
    ],
    [
      "ծիրավուր",
      "կ"
    ],
    [
      "ծիրավուրկ",
      "ակ</w>"
    ],
    [
      "աց",
      "ն</w>"
    ],
    [
      "si",
      "b"
    ],
    [
      "a",
      "tional</w>"
    ],
    [
      "c",
      "ap"
    ],
    [
      "m",
      "at"
    ],
    [
      "pat",
      "tern"
    ],
    [
      "lo",
      "w</w>"
    ],
    [
      "h",
      "and"
    ],
    [
      "tic",
      "al</w>"
    ],
    [
      "sign",
      "</w>"
    ],
    [
      "a",
      "tive</w>"
    ],
    [
      "g",
      "u"
    ],
    [
      "u",
      "man"
    ],
    [
      "al",
      "s</w>"
    ],
    [
      "w",
      "eb</w>"
    ],
    [
      "b",
      "i"
    ],
    [
      "sion",
      "s</w>"
    ],
    [
      "h",
      "e"
    ],
    [
      "T",
      "h"
    ],
    [
      "g",
      "h"
    ],
    [
      "o",
      "ut"
    ],
    [
      "t",
      "ed</w>"
    ],
    [
      "wit",
      "h"
    ],
    [
      "f",
      "fer"
    ],
    [
      "հարաս",
      "տ</w>"
    ],
    [
      "տեղն",
      "կական</w>"
    ],
    [
      "կար",
      "ություն</w>"
    ],
    [
      "co",
      "l"
    ],
    [
      "pro",
      "tec"
    ],
    [
      "reduc",
      "es</w>"
    ],
    [
      "tic",
      "s</w>"
    ],
    [
      "m",
      "al"
    ],
    [
      "t",
      "re"
    ],
    [
      "u",
      "p"
    ],
    [
      "n",
      "ec"
    ],
    [
      "o",
      "logy</w>"
    ],
    [
      "con",
      "ver"
    ],
    [
      "cl",
      "as"
    ],
    [
      "se",
      "qu"
    ],
    [
      "ex",
      "ec"
    ],
    [
      "խ",
      "ակ"
    ],
    [
      "խակ",
      "ն"
    ],
    [
      "խակն",
      "աման</w>"
    ],
    [
      "պ",
      "ուր"
    ],
    [
      "պուր",
      "գ"
    ],
    [
      "պուրգ",
      "այու"
    ],
    [
      "ություն",
      "ի</w>"
    ],
    [
      "tes",
      "ting</w>"
    ],
    [
      "de",
      "tec"
    ],
    [
      "si",
      "st"
    ],
    [
      "th",
      "o"
    ],
    [
      "si",
      "mul"
    ],
    [
      "a",
      "d</w>"
    ],
    [
      "g",
      "e"
    ],
    [
      "acces",
      "s</w>"
    ],
    [
      "y",
      "p"
    ],
    [
      "A",
      "</w>"
    ],
    [
      "no",
      "w"
    ],
    [
      "as",
      "es</w>"
    ],
    [
      "au",
      "tom"
    ],
    [
      "f",
      "in"
    ],
    [
      "progra",
      "mm"
    ],
    [
      "c",
      "el"
    ],
    [
      "c",
      "or"
    ],
    [
      "identi",
      "fies</w>"
    ],
    [
      "fic",
      "ation</w>"
    ],
    [
      "t",
      "er</w>"
    ],
    [
      "իր",
      "ան</w>"
    ],
    [
      "ճո",
      "վ"
    ],
    [
      "m",
      "emory</w>"
    ],
    [
      "provid",
      "e</w>"
    ],
    [
      "m",
      "ar"
    ],
    [
      "for",
      "m</w>"
    ],
    [
      "en",
      "ables</w>"
    ],
    [
      "sh",
      "i"
    ],
    [
      "a",
      "st"
    ],
    [
      "cont",
      "ent</w>"
    ],
    [
      "d",
      "ge</w>"
    ],
    [
      "de",
      "scri"
    ],
    [
      "f",
      "ec"
    ],
    [
      "a",
      "v"
    ],
    [
      "ur",
      "ity</w>"
    ],
    [
      "programm",
      "ing</w>"
    ],
    [
      "g",
      "y</w>"
    ],
    [
      "it",
      "h"
    ],
    [
      "ha",
      "vi"
    ],
    [
      "our",
      "ce</w>"
    ],
    [
      "comb",
      "ines</w>"
    ],
    [
      "it",
      "ec"
    ],
    [
      "u",
      "tions</w>"
    ],
    [
      "նվիգ",
      "ային</w>"
    ],
    [
      "ում",
      "ին</w>"
    ],
    [
      "ություն",
      "ըն</w>"
    ],
    [
      "comm",
      "un"
    ],
    [
      "proces",
      "sing</w>"
    ],
    [
      "ar",
      "d</w>"
    ],
    [
      "u",
      "al</w>"
    ],
    [
      "gor",
      "ith"
    ],
    [
      "be",
      "havi"
    ],
    [
      "me",
      "tho"
    ],
    [
      "uman",
      "</w>"
    ],
    [
      "կ",
      "իրան</w>"
    ],
    [
      "պրած",
      "ք</w>"
    ],
    [
      "պատվ",
      "ում</w>"
    ],
    [
      "իմաս",
      "ություն</w>"
    ],
    [
      "iz",
      "e</w>"
    ],
    [
      "vi",
      "su"
    ],
    [
      "wor",
      "k</w>"
    ],
    [
      "ver",
      "i"
    ],
    [
      "of",
      "tw"
    ],
    [
      "oftw",
      "are</w>"
    ],
    [
      "prob",
      "lem"
    ],
    [
      "at",
      "e"
    ],
    [
      "ar",
      "y</w>"
    ],
    [
      "ir",
      "</w>"
    ],
    [
      "tinu",
      "ous</w>"
    ],
    [
      "v",
      "er</w>"
    ],
    [
      "m",
      "in"
    ],
    [
      "analy",
      "sis</w>"
    ],
    [
      "i",
      "al</w>"
    ],
    [
      "di",
      "ffer"
    ],
    [
      "arch",
      "itec"
    ],
    [
      "միսեր",
      "</w>"
    ],
    [
      "ս",
      "տվ"
    ],
    [
      "առղեն",
      "ություն</w>"
    ],
    [
      "միսուվ",
      "ություն</w>"
    ],
    [
      "ig",
      "h"
    ],
    [
      "as",
      "ed</w>"
    ],
    [
      "bu",
      "il"
    ],
    [
      "servic",
      "es</w>"
    ],
    [
      "tech",
      "no"
    ],
    [
      "cre",
      "ates</w>"
    ],
    [
      "L",
      "</w>"
    ],
    [
      "func",
      "tions</w>"
    ],
    [
      "fic",
      "</w>"
    ],
    [
      "de",
      "sign</w>"
    ],
    [
      "en",
      "d"
    ],
    [
      "descri",
      "b"
    ],
    [
      "ter",
      "s</w>"
    ],
    [
      "res",
      "sion</w>"
    ],
    [
      "behavi",
      "or</w>"
    ],
    [
      "res",
      "pon"
    ],
    [
      "or",
      "d"
    ],
    [
      "m",
      "on"
    ],
    [
      "us",
      "ing</w>"
    ],
    [
      "t",
      "ain"
    ],
    [
      "է",
      "նել"
    ],
    [
      "էնել",
      "</w>"
    ],
    [
      "ten",
      "tion</w>"
    ],
    [
      "qu",
      "ality</w>"
    ],
    [
      "lo",
      "u"
    ],
    [
      "it",
      "e</w>"
    ],
    [
      "n",
      "</w>"
    ],
    [
      "T",
      "</w>"
    ],
    [
      "ev",
      "alu"
    ],
    [
      "x",
      "</w>"
    ],
    [
      "now",
      "le"
    ],
    [
      "nowle",
      "dge</w>"
    ],
    [
      "impro",
      "ves</w>"
    ],
    [
      "oc",
      "u"
    ],
    [
      "sp",
      "ec"
    ],
    [
      "te",
      "g"
    ],
    [
      "Th",
      "e</w>"
    ],
    [
      "lo",
      "ws</w>"
    ],
    [
      "ex",
      "per"
    ],
    [
      "al",
      "gorith"
    ],
    [
      "tr",
      "i"
    ],
    [
      "t",
      "ures</w>"
    ],
    [
      "d",
      "ing</w>"
    ],
    [
      "con",
      "nec"
    ],
    [
      "t",
      "as"
    ],
    [
      "i",
      "s</w>"
    ],
    [
      "vi",
      "ron"
    ],
    [
      "ճ",
      "աման</w>"
    ],
    [
      "հայտ",
      "ըն</w>"
    ],
    [
      "պուրգայու",
      "ն</w>"
    ],
    [
      "ճ",
      "ն"
    ],
    [
      "b",
      "ased</w>"
    ],
    [
      "P",
      "</w>"
    ],
    [
      "abil",
      "ities</w>"
    ],
    [
      "ac",
      "t</w>"
    ],
    [
      "i",
      "mp"
    ],
    [
      "m",
      "ain"
    ],
    [
      "ing",
      "s</w>"
    ],
    [
      "re",
      "la"
    ],
    [
      "tu",
      "al</w>"
    ],
    [
      "pre",
      "v"
    ],
    [
      "dat",
      "ab"
    ],
    [
      "t",
      "e</w>"
    ],
    [
      "techno",
      "logy</w>"
    ],
    [
      "re",
      "pres"
    ],
    [
      "gener",
      "ation</w>"
    ],
    [
      "E",
      "n"
    ],
    [
      "ստվ",
      "ություն</w>"
    ],
    [
      "a",
      "y"
    ],
    [
      "il",
      "ity</w>"
    ],
    [
      "s",
      "oftware</w>"
    ],
    [
      "es",
      "t</w>"
    ],
    [
      "del",
      "i"
    ],
    [
      "ri",
      "v"
    ],
    [
      "func",
      "tion</w>"
    ],
    [
      "ic",
      "es</w>"
    ],
    [
      "us",
      "in"
    ],
    [
      "an",
      "ces</w>"
    ],
    [
      "o",
      "ver"
    ],
    [
      "el",
      "y</w>"
    ],
    [
      "architec",
      "ture</w>"
    ],
    [
      "l",
      "ex"
    ],
    [
      "երիցվել",
      "</w>"
    ],
    [
      "ne",
      "w</w>"
    ],
    [
      "con",
      "sist"
    ],
    [
      "in",
      "pu"
    ],
    [
      "la",
      "y"
    ],
    [
      "po",
      "si"
    ],
    [
      "stor",
      "es</w>"
    ],
    [
      "a",
      "f"
    ],
    [
      "comp",
      "ar"
    ],
    [
      "chang",
      "es</w>"
    ],
    [
      "c",
      "e"
    ],
    [
      "a",
      "in</w>"
    ],
    [
      "p",
      "e"
    ],
    [
      "our",
      "ces</w>"
    ],
    [
      "y",
      "n"
    ],
    [
      "su",
      "b"
    ],
    [
      "distrib",
      "ution</w>"
    ],
    [
      "un",
      "d"
    ],
    [
      "h",
      "uman</w>"
    ],
    [
      "cur",
      "r"
    ],
    [
      "with",
      "out</w>"
    ],
    [
      "le",
      "v"
    ],
    [
      "ne",
      "ural</w>"
    ],
    [
      "to",
      "k"
    ],
    [
      "ճն",
      "տր"
    ],
    [
      "us",
      "ers</w>"
    ],
    [
      "lou",
      "d</w>"
    ],
    [
      "pl",
      "at"
    ],
    [
      "tiv",
      "es</w>"
    ],
    [
      "problem",
      "s</w>"
    ],
    [
      "oper",
      "ations</w>"
    ],
    [
      "hand",
      "les</w>"
    ],
    [
      "d",
      "u"
    ],
    [
      "ef",
      "fec"
    ],
    [
      "e",
      "p</w>"
    ],
    [
      "es",
      "s"
    ],
    [
      "sec",
      "urity</w>"
    ],
    [
      "l",
      "ab"
    ],
    [
      "b",
      "ac"
    ],
    [
      "N",
      "e"
    ],
    [
      "usin",
      "ess</w>"
    ],
    [
      "en",
      "viron"
    ],
    [
      "it",
      "al</w>"
    ],
    [
      "բարա",
      "ք"
    ],
    [
      "ին",
      "ի</w>"
    ],
    [
      "commun",
      "ication</w>"
    ],
    [
      "Q",
      "u"
    ],
    [
      "contro",
      "l</w>"
    ],
    [
      "comp",
      "on"
    ],
    [
      "me",
      "tr"
    ],
    [
      "it",
      "or"
    ],
    [
      "st",
      "and"
    ],
    [
      "z",
      "e</w>"
    ],
    [
      "er",
      "ing</w>"
    ],
    [
      "in",
      "teg"
    ],
    [
      "di",
      "vid"
    ],
    [
      "trac",
      "ks</w>"
    ],
    [
      "al",
      "l"
    ],
    [
      "ener",
      "gy</w>"
    ],
    [
      "ver",
      "s</w>"
    ],
    [
      "qu",
      "an"
    ],
    [
      "comput",
      "ation</w>"
    ],
    [
      "clas",
      "si"
    ],
    [
      "lo",
      "y"
    ],
    [
      "at",
      "tention</w>"
    ],
    [
      "sa",
      "mp"
    ],
    [
      "di",
      "g"
    ],
    [
      "ել",
      "ին</w>"
    ],
    [
      "ճնտր",
      "ություն</w>"
    ],
    [
      "ent",
      "ly</w>"
    ],
    [
      "col",
      "lec"
    ],
    [
      "f",
      "ail"
    ],
    [
      "u",
      "m</w>"
    ],
    [
      "tu",
      "m</w>"
    ],
    [
      "a",
      "m</w>"
    ],
    [
      "z",
      "es</w>"
    ],
    [
      "al",
      "izes</w>"
    ],
    [
      "def",
      "ine</w>"
    ],
    [
      "pattern",
      "s</w>"
    ],
    [
      "n",
      "s</w>"
    ],
    [
      "o",
      "o"
    ],
    [
      "A",
      "P"
    ],
    [
      "f",
      "</w>"
    ],
    [
      "con",
      "tinuous</w>"
    ],
    [
      "te",
      "sts</w>"
    ],
    [
      "o",
      "ver</w>"
    ],
    [
      "iz",
      "ed</w>"
    ],
    [
      "ment",
      "al</w>"
    ],
    [
      "il",
      "e</w>"
    ],
    [
      "tas",
      "ks</w>"
    ],
    [
      "gro",
      "u"
    ],
    [
      "ec",
      "t"
    ],
    [
      "ev",
      "ents</w>"
    ],
    [
      "m",
      "a"
    ],
    [
      "exec",
      "ution</w>"
    ],
    [
      "ur",
      "ing</w>"
    ],
    [
      "i",
      "t</w>"
    ],
    [
      "միսել",
      "ինին</w>"
    ],
    [
      "or",
      "i"
    ],
    [
      "in",
      "t"
    ],
    [
      "ul",
      "ar</w>"
    ],
    [
      "L",
      "o"
    ],
    [
      "sp",
      "e"
    ],
    [
      "pr",
      "ac"
    ],
    [
      "f",
      "y</w>"
    ],
    [
      "S",
      "t"
    ],
    [
      "l",
      "im"
    ],
    [
      "s",
      "er"
    ],
    [
      "k",
      "nowledge</w>"
    ],
    [
      "er",
      "r"
    ],
    [
      "eng",
      "ine"
    ],
    [
      "C",
      "h"
    ],
    [
      "itor",
      "ing</w>"
    ],
    [
      "y",
      "s"
    ],
    [
      "re",
      "li"
    ],
    [
      "si",
      "ve</w>"
    ],
    [
      "k",
      "e</w>"
    ],
    [
      "trans",
      "form"
    ],
    [
      "at",
      "er</w>"
    ],
    [
      "rela",
      "tion"
    ],
    [
      "relation",
      "shi"
    ],
    [
      "tes",
      "t</w>"
    ],
    [
      "s",
      "ource</w>"
    ],
    [
      "in",
      "v"
    ],
    [
      "objec",
      "ts</w>"
    ],
    [
      "par",
      "a"
    ],
    [
      "vari",
      "ables</w>"
    ],
    [
      "spec",
      "i"
    ],
    [
      "con",
      "f"
    ],
    [
      ",",
      "</w>"
    ],
    [
      "ճով",
      "</w>"
    ],
    [
      "re",
      "l"
    ],
    [
      "ավել",
      "ին</w>"
    ],
    [
      "A",
      "c"
    ],
    [
      "fra",
      "structure</w>"
    ],
    [
      "S",
      "</w>"
    ],
    [
      "in",
      "t</w>"
    ],
    [
      "sib",
      "ility</w>"
    ],
    [
      "st",
      "ates</w>"
    ],
    [
      "an",
      "c"
    ],
    [
      "de",
      "ci"
    ],
    [
      "inter",
      "fac"
    ],
    [
      "compon",
      "ents</w>"
    ],
    [
      "or",
      "e</w>"
    ],
    [
      "f",
      "low</w>"
    ],
    [
      "ac",
      "tion</w>"
    ],
    [
      "valu",
      "e</w>"
    ],
    [
      "de",
      "v"
    ],
    [
      "m",
      "ach"
    ],
    [
      "describ",
      "es</w>"
    ],
    [
      "stor",
      "e</w>"
    ],
    [
      "al",
      "l</w>"
    ],
    [
      "valu",
      "es</w>"
    ],
    [
      "b",
      "l"
    ],
    [
      "e",
      "arch</w>"
    ],
    [
      "se",
      "arch</w>"
    ],
    [
      "em",
      "ents</w>"
    ]
  ]
}