{
  "vocab_size": 5000,
  "special_tokens": [
    "<PAD>",
    "<UNK>",
    "<BOS>",
    "<EOS>",
    "<CLS>",
    "<SEP>",
    "[ASSIST_START]"
  ],
  "vocab": {
    "<PAD>": 0,
    "<UNK>": 1,
    "<BOS>": 2,
    "<EOS>": 3,
    "<CLS>": 4,
    "<SEP>": 5,
    "[ASSIST_START]": 6,
    "\"": 7,
    "'": 8,
    "(": 9,
    ")": 10,
    "*": 11,
    "+": 12,
    ",": 13,
    "-": 14,
    ".": 15,
    "/": 16,
    "0": 17,
    "1": 18,
    "2": 19,
    "3": 20,
    "4": 21,
    "5": 22,
    "6": 23,
    "7": 24,
    "8": 25,
    "9": 26,
    ":": 27,
    ";": 28,
    "</w>": 29,
    "=": 30,
    ">": 31,
    "A": 32,
    "B": 33,
    "C": 34,
    "D": 35,
    "E": 36,
    "F": 37,
    "G": 38,
    "H": 39,
    "I": 40,
    "J": 41,
    "K": 42,
    "L": 43,
    "M": 44,
    "N": 45,
    "O": 46,
    "P": 47,
    "Q": 48,
    "R": 49,
    "S": 50,
    "T": 51,
    "U": 52,
    "V": 53,
    "W": 54,
    "Z": 55,
    "[": 56,
    "]": 57,
    "a": 58,
    "b": 59,
    "c": 60,
    "d": 61,
    "e": 62,
    "f": 63,
    "g": 64,
    "h": 65,
    "i": 66,
    "j": 67,
    "k": 68,
    "l": 69,
    "m": 70,
    "n": 71,
    "o": 72,
    "p": 73,
    "q": 74,
    "r": 75,
    "s": 76,
    "t": 77,
    "u": 78,
    "v": 79,
    "w": 80,
    "x": 81,
    "y": 82,
    "z": 83,
    "{": 84,
    "}": 85,
    "ա": 86,
    "բ": 87,
    "գ": 88,
    "դ": 89,
    "ե": 90,
    "զ": 91,
    "է": 92,
    "ը": 93,
    "թ": 94,
    "ի": 95,
    "լ": 96,
    "խ": 97,
    "ծ": 98,
    "կ": 99,
    "հ": 100,
    "ղ": 101,
    "ճ": 102,
    "մ": 103,
    "յ": 104,
    "ն": 105,
    "շ": 106,
    "ո": 107,
    "չ": 108,
    "պ": 109,
    "ջ": 110,
    "ռ": 111,
    "ս": 112,
    "վ": 113,
    "տ": 114,
    "ր": 115,
    "ց": 116,
    "ւ": 117,
    "ք": 118,
    "և": 119,
    "\"</w>": 120,
    ":</w>": 121,
    ",</w>": 122,
    "e</w>": 123,
    "s</w>": 124,
    "n</w>": 125,
    "te": 126,
    "t</w>": 127,
    "r</w>": 128,
    ".</w>": 129,
    "on</w>": 130,
    "nd": 131,
    "ti": 132,
    "re": 133,
    "[</w>": 134,
    "]</w>": 135,
    "y</w>": 136,
    "co": 137,
    "ri": 138,
    "le": 139,
    "tion</w>": 140,
    "ma": 141,
    "er</w>": 142,
    "fi": 143,
    "com": 144,
    "py</w>": 145,
    "{</w>": 146,
    "}</w>": 147,
    "al": 148,
    "ta": 149,
    "ste": 150,
    "comma": 151,
    "command": 152,
    "step": 153,
    "ac": 154,
    "les</w>": 155,
    "um": 156,
    "files</w>": 157,
    "de": 158,
    "te</w>": 159,
    "in": 160,
    "command</w>": 161,
    "rg": 162,
    "'</w>": 163,
    "g</w>": 164,
    "pe</w>": 165,
    "th": 166,
    "et</w>": 167,
    "ty": 168,
    "type</w>": 169,
    "f</w>": 170,
    "ն</w>": 171,
    "action</w>": 172,
    "targ": 173,
    "step</w>": 174,
    "num": 175,
    "target</w>": 176,
    "numb": 177,
    "number</w>": 178,
    "d</w>": 179,
    "ro": 180,
    "se": 181,
    "ul": 182,
    "ter</w>": 183,
    "(</w>": 184,
    ")</w>": 185,
    "val": 186,
    "wri": 187,
    "write</w>": 188,
    "or</w>": 189,
    "ts</w>": 190,
    "li": 191,
    "py": 192,
    "da": 193,
    "-</w>": 194,
    "po": 195,
    "1</w>": 196,
    "m</w>": 197,
    "sc": 198,
    "ին</w>": 199,
    "ap": 200,
    "st</w>": 201,
    "sp": 202,
    "an": 203,
    "pro": 204,
    "en": 205,
    "tter</w>": 206,
    "ms</w>": 207,
    "2</w>": 208,
    "se</w>": 209,
    "/</w>": 210,
    "ur": 211,
    "spli": 212,
    "mo": 213,
    "test</w>": 214,
    "splitter</w>": 215,
    "pyth": 216,
    "python</w>": 217,
    "sel": 218,
    "self</w>": 219,
    "ui": 220,
    "ret": 221,
    "er": 222,
    "ու": 223,
    "res": 224,
    "rip": 225,
    "ite": 226,
    "desc": 227,
    "descrip": 228,
    "description</w>": 229,
    "steps</w>": 230,
    "ar": 231,
    "ing</w>": 232,
    "items</w>": 233,
    "է</w>": 234,
    "ida": 235,
    "und": 236,
    "ch": 237,
    "def</w>": 238,
    "js": 239,
    "json</w>": 240,
    "valida": 241,
    "ve</w>": 242,
    "ule</w>": 243,
    "dule</w>": 244,
    "o</w>": 245,
    "sta": 246,
    "ge</w>": 247,
    "alse</w>": 248,
    "false</w>": 249,
    "req": 250,
    "sk": 251,
    "es</w>": 252,
    "con": 253,
    "in</w>": 254,
    "ec": 255,
    "module</w>": 256,
    "3</w>": 257,
    "si": 258,
    "retur": 259,
    "return</w>": 260,
    "resul": 261,
    "x</w>": 262,
    "stand": 263,
    "requi": 264,
    "risk": 265,
    "ին": 266,
    "end": 267,
    "at": 268,
    "op": 269,
    "l</w>": 270,
    "le</w>": 271,
    "res</w>": 272,
    "ob": 273,
    "val</w>": 274,
    "=</w>": 275,
    "tive</w>": 276,
    "result</w>": 277,
    "jec": 278,
    "rele": 279,
    "van": 280,
    "objec": 281,
    "relevan": 282,
    "relevant</w>": 283,
    "under": 284,
    "understand": 285,
    "understanding</w>": 286,
    "validation</w>": 287,
    "requires</w>": 288,
    "appro": 289,
    "approval</w>": 290,
    "objective</w>": 291,
    "risks</w>": 292,
    "commands</w>": 293,
    "եր": 294,
    "rt</w>": 295,
    "opts</w>": 296,
    "me": 297,
    "for</w>": 298,
    "0</w>": 299,
    "la": 300,
    "lo": 301,
    "it</w>": 302,
    "ne": 303,
    "the</w>": 304,
    "port</w>": 305,
    "comp": 306,
    "մի": 307,
    "im": 308,
    "der</w>": 309,
    "ex": 310,
    "is": 311,
    "import</w>": 312,
    "may</w>": 313,
    "sion</w>": 314,
    "ut</w>": 315,
    "ել": 316,
    "ha": 317,
    "ena": 318,
    "ng</w>": 319,
    "ol</w>": 320,
    "a</w>": 321,
    "ինին</w>": 322,
    "այ": 323,
    "vi": 324,
    ";</w>": 325,
    "age</w>": 326,
    "ps</w>": 327,
    "confi": 328,
    "*</w>": 329,
    "pytest</w>": 330,
    "4</w>": 331,
    "dum": 332,
    "dumps</w>": 333,
    "ack": 334,
    "or": 335,
    "and": 336,
    "init</w>": 337,
    "tr": 338,
    "տ</w>": 339,
    "un": 340,
    "par": 341,
    "to</w>": 342,
    "ssion</w>": 343,
    "and</w>": 344,
    "ից": 345,
    "իցվ": 346,
    "c</w>": 347,
    "session</w>": 348,
    "tor</w>": 349,
    "ue</w>": 350,
    "he</w>": 351,
    "be": 352,
    "sts</w>": 353,
    "ta</w>": 354,
    "5</w>": 355,
    "9</w>": 356,
    "8</w>": 357,
    "atch": 358,
    "ակ": 359,
    "6</w>": 360,
    "7</w>": 361,
    "un</w>": 362,
    "dd</w>": 363,
    "pend": 364,
    "Run</w>": 365,
    "ate</w>": 366,
    "ամ": 367,
    "du": 368,
    "ile</w>": 369,
    "pack": 370,
    "package</w>": 371,
    "pk": 372,
    "pkg</w>": 373,
    "compile</w>": 374,
    "ty</w>": 375,
    "out</w>": 376,
    "enab": 377,
    "retri": 378,
    "led</w>": 379,
    "api": 380,
    "time": 381,
    "timeout</w>": 382,
    "to": 383,
    "enabled</w>": 384,
    "endpo": 385,
    "endpoin": 386,
    "endpoints</w>": 387,
    "api</w>": 388,
    "neste": 389,
    "nested</w>": 390,
    "retries</w>": 391,
    "pool</w>": 392,
    "ss</w>": 393,
    "ting</w>": 394,
    "երիցվ": 395,
    "երիցվել": 396,
    "աս": 397,
    "w</w>": 398,
    "el": 399,
    "fil": 400,
    "ավ": 401,
    "filter</w>": 402,
    "reate</w>": 403,
    "is</w>": 404,
    "chan": 405,
    "մե": 406,
    "cla": 407,
    "Create</w>": 408,
    "A</w>": 409,
    "no</w>": 410,
    "exis": 411,
    "existing</w>": 412,
    "Add</w>": 413,
    "ip": 414,
    "change</w>": 415,
    "be</w>": 416,
    "fe": 417,
    "al</w>": 418,
    "batch": 419,
    "batch</w>": 420,
    "յու": 421,
    "on": 422,
    "no": 423,
    "տեր": 424,
    "ction</w>": 425,
    "em": 426,
    "loa": 427,
    "data</w>": 428,
    "tex": 429,
    "cor": 430,
    "text</w>": 431,
    "coder</w>": 432,
    "bo": 433,
    "fro": 434,
    "unction</w>": 435,
    "from</w>": 436,
    "para": 437,
    "havi": 438,
    "ce</w>": 439,
    "me</w>": 440,
    "behavi": 441,
    "behavior</w>": 442,
    "ավաս": 443,
    "ary</w>": 444,
    "հավաս": 445,
    "ած": 446,
    "ct</w>": 447,
    "value</w>": 448,
    "The</w>": 449,
    "ests</w>": 450,
    "params</w>": 451,
    "bound": 452,
    "do": 453,
    "+</w>": 454,
    "cal": 455,
    "boundary</w>": 456,
    "ար": 457,
    "not</w>": 458,
    "իմ": 459,
    "ան</w>": 460,
    "class</w>": 461,
    "append": 462,
    "append</w>": 463,
    "len</w>": 464,
    "sh": 465,
    "ent</w>": 466,
    "sui": 467,
    "suite</w>": 468,
    "Tests</w>": 469,
    "p</w>": 470,
    "ls</w>": 471,
    "ine</w>": 472,
    "Re": 473,
    "նին</w>": 474,
    "per</w>": 475,
    "ke": 476,
    "ած</w>": 477,
    "լայ": 478,
    "վու": 479,
    "մետ</w>": 480,
    "nde": 481,
    "լայն</w>": 482,
    "iz": 483,
    "rger</w>": 484,
    "file</w>": 485,
    "ation</w>": 486,
    "ր</w>": 487,
    "orma": 488,
    "an</w>": 489,
    "թյու": 490,
    "tri": 491,
    "թամ": 492,
    "uti": 493,
    "ly</w>": 494,
    "ws</w>": 495,
    "ությու": 496,
    "ser</w>": 497,
    "dap": 498,
    "as": 499,
    "միվու": 500,
    "իմն": 501,
    "dapter</w>": 502,
    "rows</w>": 503,
    "di": 504,
    "միվուր</w>": 505,
    "հիմն": 506,
    "միշ": 507,
    "միշակ": 508,
    "ache</w>": 509,
    "cache</w>": 510,
    "ure</w>": 511,
    "izer</w>": 512,
    "provi": 513,
    "true</w>": 514,
    "ted</w>": 515,
    "nt</w>": 516,
    "adapter</w>": 517,
    "gu": 518,
    "ca": 519,
    "թամին</w>": 520,
    "երիցվելինին</w>": 521,
    "ուն</w>": 522,
    "մա": 523,
    "ինտեր": 524,
    "put</w>": 525,
    "function</w>": 526,
    "ler</w>": 527,
    "ag": 528,
    "pri": 529,
    "ep</w>": 530,
    "մամ": 531,
    "մամուն</w>": 532,
    "input</w>": 533,
    "sum": 534,
    "reg": 535,
    "tests</w>": 536,
    "fac": 537,
    "երիցվելին</w>": 538,
    "10": 539,
    "12": 540,
    "ard</w>": 541,
    "emp": 542,
    "ix": 543,
    "config</w>": 544,
    "he": 545,
    "15": 546,
    "one</w>": 547,
    "keep</w>": 548,
    "guard</w>": 549,
    "empty</w>": 550,
    "ությունին</w>": 551,
    "ipel": 552,
    "ipeline</w>": 553,
    "17": 554,
    "19": 555,
    "ke</w>": 556,
    "corre": 557,
    "factor</w>": 558,
    "ature</w>": 559,
    "բար": 560,
    "cul": 561,
    "14": 562,
    "pda": 563,
    "Refactor</w>": 564,
    "gur": 565,
    "guration</w>": 566,
    "doc": 567,
    "sche": 568,
    "13": 569,
    "Upda": 570,
    "Update</w>": 571,
    "has</w>": 572,
    "conc": 573,
    "configuration</w>": 574,
    "feature</w>": 575,
    "depend": 576,
    "ator</w>": 577,
    "concer": 578,
    "pipeline</w>": 579,
    "calcul": 580,
    "calculator</w>": 581,
    "18": 582,
    "tool</w>": 583,
    "Rena": 584,
    "Rename</w>": 585,
    "forma": 586,
    "rou": 587,
    "rial": 588,
    "ser": 589,
    "ship": 590,
    "16": 591,
    "serial": 592,
    "serializer</w>": 593,
    "beta</w>": 594,
    "shipper</w>": 595,
    "ind": 596,
    "validator</w>": 597,
    "provider</w>": 598,
    "try</w>": 599,
    "probe</w>": 600,
    "compres": 601,
    "compress": 602,
    "compressor</w>": 603,
    "merger</w>": 604,
    "ni": 605,
    "rende": 606,
    "load</w>": 607,
    "ze</w>": 608,
    "index": 609,
    "indexer</w>": 610,
    "rendere": 611,
    "renderer</w>": 612,
    "schedu": 613,
    "scheduler</w>": 614,
    "ann": 615,
    "ra": 616,
    "encoder</w>": 617,
    "հիմնան</w>": 618,
    "parser</w>": 619,
    "router</w>": 620,
    "tch": 621,
    "decoder</w>": 622,
    "formatter</w>": 623,
    "moni": 624,
    "hal": 625,
    "halo</w>": 626,
    "scann": 627,
    "scanner</w>": 628,
    "միս": 629,
    "fetch": 630,
    "ver": 631,
    "monitor</w>": 632,
    "այինին</w>": 633,
    "loader</w>": 634,
    "ս</w>": 635,
    "բարած</w>": 636,
    "fetcher</w>": 637,
    "ci": 638,
    "utils</w>": 639,
    "disp": 640,
    "dispatch": 641,
    "dispatcher</w>": 642,
    "th</w>": 643,
    "wi": 644,
    "ces</w>": 645,
    "նե": 646,
    "հավաստ</w>": 647,
    "sy": 648,
    "եղ": 649,
    "եղն": 650,
    "ինտերնե": 651,
    "11": 652,
    "inte": 653,
    "k</w>": 654,
    "միշակ</w>": 655,
    "with</w>": 656,
    "bu": 657,
    "lity</w>": 658,
    "log": 659,
    "եղնությունին</w>": 660,
    "pre": 661,
    "tin": 662,
    "մետ": 663,
    "sig": 664,
    "մետիցվ": 665,
    "մետիցված</w>": 666,
    "ue": 667,
    "cord</w>": 668,
    "tric</w>": 669,
    "su": 670,
    "min": 671,
    "ble</w>": 672,
    "the": 673,
    "mp": 674,
    "nce</w>": 675,
    "ի</w>": 676,
    "մաշ": 677,
    "Mo": 678,
    "ինտերնետ": 679,
    "որ": 680,
    "na": 681,
    "pon": 682,
    "ct": 683,
    "ba": 684,
    "ry</w>": 685,
    "main</w>": 686,
    "uest</w>": 687,
    "dge</w>": 688,
    "app": 689,
    "duces</w>": 690,
    "ns</w>": 691,
    "ele": 692,
    "ming</w>": 693,
    "հավաստեր": 694,
    "ելինին</w>": 695,
    "մոր": 696,
    "մորք": 697,
    "nee": 698,
    "entry</w>": 699,
    "tly</w>": 700,
    "act</w>": 701,
    "time</w>": 702,
    "tation</w>": 703,
    "ay": 704,
    "hel": 705,
    "ree</w>": 706,
    "regres": 707,
    "ff": 708,
    "low</w>": 709,
    "print</w>": 710,
    "new</w>": 711,
    "ck</w>": 712,
    "ren": 713,
    "acks</w>": 714,
    "cover": 715,
    "assum": 716,
    "ic</w>": 717,
    "pose</w>": 718,
    "ther</w>": 719,
    "rela": 720,
    "Ex": 721,
    "ful": 722,
    "ful</w>": 723,
    "tro": 724,
    "rs</w>": 725,
    "միշակն": 726,
    "միշակնելինին</w>": 727,
    "ատ": 728,
    "if</w>": 729,
    "metric</w>": 730,
    "mal</w>": 731,
    "cur": 732,
    "Edge</w>": 733,
    "Fi": 734,
    "results</w>": 735,
    "Cor": 736,
    "tent</w>": 737,
    "regression</w>": 738,
    "are</w>": 739,
    "nal</w>": 740,
    "docum": 741,
    "ayload</w>": 742,
    "bug</w>": 743,
    "helper</w>": 744,
    "request</w>": 745,
    "utility</w>": 746,
    "standal": 747,
    "standalone</w>": 748,
    "neede": 749,
    "needed</w>": 750,
    "conf": 751,
    "confli": 752,
    "conflict</w>": 753,
    "qui": 754,
    "quick</w>": 755,
    "smo": 756,
    "smoke</w>": 757,
    "Module</w>": 758,
    "larger</w>": 759,
    "than</w>": 760,
    "intende": 761,
    "intended</w>": 762,
    "sco": 763,
    "scope</w>": 764,
    "mini": 765,
    "minimal</w>": 766,
    "Function</w>": 767,
    "curren": 768,
    "currently</w>": 769,
    "lacks</w>": 770,
    "case</w>": 771,
    "preser": 772,
    "preserve</w>": 773,
    "unit</w>": 774,
    "coverage</w>": 775,
    "assume</w>": 776,
    "stable</w>": 777,
    "them</w>": 778,
    "appra": 779,
    "apprais": 780,
    "appraisal</w>": 781,
    "free</w>": 782,
    "ness</w>": 783,
    "other</w>": 784,
    "simp": 785,
    "lif": 786,
    "nta": 787,
    "ffec": 788,
    "documen": 789,
    "prop": 790,
    "Val": 791,
    "v</w>": 792,
    "ON": 793,
    "enci": 794,
    "encies</w>": 795,
    "record</w>": 796,
    "20": 797,
    "Fix</w>": 798,
    "correct": 799,
    "correctness</w>": 800,
    "cond": 801,
    "condi": 802,
    "condition</w>": 803,
    "produces</w>": 804,
    "incorre": 805,
    "incorrect</w>": 806,
    "Corre": 807,
    "Correct</w>": 808,
    "logic</w>": 809,
    "Fix": 810,
    "Fixing</w>": 811,
    "expose</w>": 812,
    "latent</w>": 813,
    "issu": 814,
    "issues</w>": 815,
    "asse": 816,
    "assert</w>": 817,
    "None</w>": 818,
    "clari": 819,
    "clarity</w>": 820,
    "long</w>": 821,
    "mix": 822,
    "mixes</w>": 823,
    "unrela": 824,
    "unrelated</w>": 825,
    "concerns</w>": 826,
    "Extr": 827,
    "Extract</w>": 828,
    "simplif": 829,
    "simplify</w>": 830,
    "confir": 831,
    "confirm</w>": 832,
    "care": 833,
    "careful</w>": 834,
    "base</w>": 835,
    "contro": 836,
    "re</w>": 837,
    "pp": 838,
    "pply</w>": 839,
    "add</w>": 840,
    "compu": 841,
    "dependencies</w>": 842,
    "Ne": 843,
    "sho": 844,
    "gg": 845,
    "fla": 846,
    "Ch": 847,
    "ang": 848,
    "ffect</w>": 849,
    "mari": 850,
    "dence</w>": 851,
    "ll</w>": 852,
    "stri": 853,
    "propag": 854,
    "ated</w>": 855,
    "ponse</w>": 856,
    "code": 857,
    "codebase</w>": 858,
    "this</w>": 859,
    "concern</w>": 860,
    "skele": 861,
    "skelet": 862,
    "skeleton</w>": 863,
    "New</w>": 864,
    "shoul": 865,
    "should</w>": 866,
    "sha": 867,
    "shado": 868,
    "shadow</w>": 869,
    "controls</w>": 870,
    "togg": 871,
    "toggles</w>": 872,
    "Set</w>": 873,
    "flag</w>": 874,
    "Valida": 875,
    "Validate</w>": 876,
    "JS": 877,
    "JSON": 878,
    "JSON</w>": 879,
    "synta": 880,
    "syntax</w>": 881,
    "Chang": 882,
    "Changing</w>": 883,
    "affect</w>": 884,
    "dependent</w>": 885,
    "modu": 886,
    "modules</w>": 887,
    "summari": 888,
    "summarize</w>": 889,
    "prima": 890,
    "primary</w>": 891,
    "confidence</w>": 892,
    "signal</w>": 893,
    "take</w>": 894,
    "require</w>": 895,
    "Apply</w>": 896,
    "sma": 897,
    "small</w>": 898,
    "tiny</w>": 899,
    "risk</w>": 900,
    "documentation</w>": 901,
    "naming</w>": 902,
    "></w>": 903,
    "docstri": 904,
    "docstring</w>": 905,
    "mu": 906,
    "must</w>": 907,
    "propagated</w>": 908,
    "calle": 909,
    "callers</w>": 910,
    "միյու": 911,
    "միյուն</w>": 912,
    "arch": 913,
    "ման": 914,
    "մանկ": 915,
    "ավել": 916,
    "ական</w>": 917,
    "մաշին": 918,
    "tion": 919,
    "երին</w>": 920,
    "sa": 921,
    "qu": 922,
    "լե": 923,
    "payload</w>": 924,
    "redu": 925,
    "mode": 926,
    "response</w>": 927,
    "ավել</w>": 928,
    "լեզ": 929,
    "լեզու": 930,
    "լեզուչ": 931,
    "լեզուչինին</w>": 932,
    "validate</w>": 933,
    "reduce</w>": 934,
    "հաս": 935,
    "հասատ": 936,
    "հասատր": 937,
    "հայ": 938,
    "ev": 939,
    "ինտերնետին</w>": 940,
    "parse</w>": 941,
    "compute</w>": 942,
    "user</w>": 943,
    "emit</w>": 944,
    "մու": 945,
    "մանկայինին</w>": 946,
    "միսերին</w>": 947,
    "rend": 948,
    "render</w>": 949,
    "rge</w>": 950,
    "profile</w>": 951,
    "մուս</w>": 952,
    "հայտ</w>": 953,
    "հիմնակ": 954,
    "ինտերե": 955,
    "ինտերես</w>": 956,
    "մաշինայինին</w>": 957,
    "event</w>": 958,
    "report</w>": 959,
    "line</w>": 960,
    "կար": 961,
    "հիմնակական</w>": 962,
    "bui": 963,
    "buil": 964,
    "ver</w>": 965,
    "quer": 966,
    "query</w>": 967,
    "vo": 968,
    "log</w>": 969,
    "հասատրակ": 970,
    "հասատրակա": 971,
    "հասատրականին</w>": 972,
    "item</w>": 973,
    "norma": 974,
    "normali": 975,
    "normalize</w>": 976,
    "st": 977,
    "fiel": 978,
    "field</w>": 979,
    "ken</w>": 980,
    "հավաստերին</w>": 981,
    "agg": 982,
    "aggreg": 983,
    "aggregate</w>": 984,
    "save</w>": 985,
    "merge</w>": 986,
    "invo": 987,
    "ice</w>": 988,
    "token</w>": 989,
    "մորքին</w>": 990,
    "build</w>": 991,
    "map</w>": 992,
    "invoice</w>": 993,
    "order</w>": 994,
    "թեղնությունին</w>": 995,
    "ive</w>": 996,
    "տեղնությունին</w>": 997,
    "կարությունին</w>": 998,
    "tes</w>": 999,
    "tions</w>": 1000,
    "archive</w>": 1001,
    "ore</w>": 1002,
    "lient</w>": 1003,
    "hit</w>": 1004,
    "plo": 1005,
    "ma</w>": 1006,
    "ken": 1007,
    "հավաստ": 1008,
    "undle</w>": 1009,
    "deplo": 1010,
    "split</w>": 1011,
    "ce": 1012,
    "ուվ": 1013,
    "model</w>": 1014,
    "24</w>": 1015,
    "scan</w>": 1016,
    "istry</w>": 1017,
    "միսուվ": 1018,
    "աք": 1019,
    "deploy</w>": 1020,
    "bi": 1021,
    "ում": 1022,
    "կր": 1023,
    "կրիմ": 1024,
    "կրիմ</w>": 1025,
    "ou": 1026,
    "wor": 1027,
    "set</w>": 1028,
    "kenizer</w>": 1029,
    "38</w>": 1030,
    "21": 1031,
    "բարաք": 1032,
    "մորք</w>": 1033,
    "server</w>": 1034,
    "store</w>": 1035,
    "61</w>": 1036,
    "75</w>": 1037,
    "client</w>": 1038,
    "28": 1039,
    "38": 1040,
    "cal</w>": 1041,
    "միսուվ</w>": 1042,
    "des</w>": 1043,
    "ses</w>": 1044,
    "12</w>": 1045,
    "35</w>": 1046,
    "49</w>": 1047,
    "98</w>": 1048,
    "հավաստի</w>": 1049,
    "gh": 1050,
    "31</w>": 1051,
    "46</w>": 1052,
    "57</w>": 1053,
    "32": 1054,
    "provides</w>": 1055,
    "ed</w>": 1056,
    "ում</w>": 1057,
    "bundle</w>": 1058,
    "45</w>": 1059,
    "60</w>": 1060,
    "71</w>": 1061,
    "94</w>": 1062,
    "men": 1063,
    "այր": 1064,
    "հավաստեր</w>": 1065,
    "առ": 1066,
    "ինտերնետի</w>": 1067,
    "30</w>": 1068,
    "taset</w>": 1069,
    "19</w>": 1070,
    "tokenizer</w>": 1071,
    "hand": 1072,
    "64</w>": 1073,
    "68</w>": 1074,
    "72</w>": 1075,
    "syste": 1076,
    "ates</w>": 1077,
    "gra": 1078,
    "մայր": 1079,
    "մայրում</w>": 1080,
    "բարաք</w>": 1081,
    "20</w>": 1082,
    "37</w>": 1083,
    "39</w>": 1084,
    "50</w>": 1085,
    "52</w>": 1086,
    "53</w>": 1087,
    "67</w>": 1088,
    "73</w>": 1089,
    "74</w>": 1090,
    "76</w>": 1091,
    "78</w>": 1092,
    "79</w>": 1093,
    "90</w>": 1094,
    "93</w>": 1095,
    "registry</w>": 1096,
    "30": 1097,
    "ային</w>": 1098,
    "man": 1099,
    "we": 1100,
    "of</w>": 1101,
    "de</w>": 1102,
    "ves</w>": 1103,
    "models</w>": 1104,
    "13</w>": 1105,
    "schema</w>": 1106,
    "15</w>": 1107,
    "16</w>": 1108,
    "22</w>": 1109,
    "26</w>": 1110,
    "27</w>": 1111,
    "36</w>": 1112,
    "41</w>": 1113,
    "48</w>": 1114,
    "56</w>": 1115,
    "59</w>": 1116,
    "63</w>": 1117,
    "83</w>": 1118,
    "87</w>": 1119,
    "99</w>": 1120,
    "bility</w>": 1121,
    "ըն</w>": 1122,
    "մաշին</w>": 1123,
    "gen": 1124,
    "lear": 1125,
    "b</w>": 1126,
    "en</w>": 1127,
    "tal</w>": 1128,
    "11</w>": 1129,
    "Me": 1130,
    "25</w>": 1131,
    "34</w>": 1132,
    "Ser": 1133,
    "47</w>": 1134,
    "54</w>": 1135,
    "che": 1136,
    "62</w>": 1137,
    "82</w>": 1138,
    "85</w>": 1139,
    "89</w>": 1140,
    "92</w>": 1141,
    "97</w>": 1142,
    "ություն</w>": 1143,
    "ures</w>": 1144,
    "pl": 1145,
    "ds</w>": 1146,
    "va": 1147,
    "dis": 1148,
    "ter": 1149,
    "թամինին</w>": 1150,
    "ks</w>": 1151,
    "կառ": 1152,
    "կառի": 1153,
    "opti": 1154,
    "10</w>": 1155,
    "17</w>": 1156,
    "21</w>": 1157,
    "23</w>": 1158,
    "32</w>": 1159,
    "33</w>": 1160,
    "42</w>": 1161,
    "handler</w>": 1162,
    "43</w>": 1163,
    "44</w>": 1164,
    "Sche": 1165,
    "Schema</w>": 1166,
    "65</w>": 1167,
    "69</w>": 1168,
    "96</w>": 1169,
    "meas": 1170,
    "manag": 1171,
    "ement</w>": 1172,
    "ning</w>": 1173,
    "կառիտ</w>": 1174,
    "logy</w>": 1175,
    "optim": 1176,
    "gh</w>": 1177,
    "gener": 1178,
    "80</w>": 1179,
    "rea": 1180,
    "Con": 1181,
    "29</w>": 1182,
    "Server</w>": 1183,
    "55</w>": 1184,
    "58</w>": 1185,
    "66</w>": 1186,
    "70</w>": 1187,
    "86</w>": 1188,
    "91</w>": 1189,
    "95</w>": 1190,
    "dataset</w>": 1191,
    "Record</w>": 1192,
    "109</w>": 1193,
    "134</w>": 1194,
    "142</w>": 1195,
    "172</w>": 1196,
    "197</w>": 1197,
    "ces": 1198,
    "au": 1199,
    "աման</w>": 1200,
    "vices</w>": 1201,
    "ան": 1202,
    "tran": 1203,
    "ment</w>": 1204,
    "tinu": 1205,
    "ous</w>": 1206,
    "gs</w>": 1207,
    "ef": 1208,
    "optimiz": 1209,
    "throu": 1210,
    "through</w>": 1211,
    "inter": 1212,
    "learning</w>": 1213,
    "Hand": 1214,
    "Handler</w>": 1215,
    "18</w>": 1216,
    "En": 1217,
    "28</w>": 1218,
    "40</w>": 1219,
    "51</w>": 1220,
    "77</w>": 1221,
    "123</w>": 1222,
    "148</w>": 1223,
    "156</w>": 1224,
    "186</w>": 1225,
    "nds</w>": 1226,
    "measures</w>": 1227,
    "systems</w>": 1228,
    "ելին</w>": 1229,
    "trans": 1230,
    "us": 1231,
    "որ</w>": 1232,
    "tra": 1233,
    "ինտերնետ</w>": 1234,
    "impro": 1235,
    "per": 1236,
    "tinuous</w>": 1237,
    "twor": 1238,
    "fici": 1239,
    "into</w>": 1240,
    "ad": 1241,
    "search": 1242,
    "ers</w>": 1243,
    "14</w>": 1244,
    "Adapter</w>": 1245,
    "Reg": 1246,
    "Registry</w>": 1247,
    "84</w>": 1248,
    "100</w>": 1249,
    "To": 1250,
    "120</w>": 1251,
    "128</w>": 1252,
    "130</w>": 1253,
    "155</w>": 1254,
    "158</w>": 1255,
    "163</w>": 1256,
    "183</w>": 1257,
    "191</w>": 1258,
    "193</w>": 1259,
    "sting</w>": 1260,
    "ines</w>": 1261,
    "ori": 1262,
    "եր</w>": 1263,
    "desig": 1264,
    "fo": 1265,
    "management</w>": 1266,
    "din": 1267,
    "ments</w>": 1268,
    "tu": 1269,
    "tional</w>": 1270,
    "նի</w>": 1271,
    "distri": 1272,
    "comb": 1273,
    "P</w>": 1274,
    "continuous</w>": 1275,
    "networ": 1276,
    "աց": 1277,
    "effici": 1278,
    "mi": 1279,
    "optimization</w>": 1280,
    "Co": 1281,
    "search</w>": 1282,
    "out": 1283,
    "Da": 1284,
    "Confi": 1285,
    "Payload</w>": 1286,
    "Metric</w>": 1287,
    "Entry</w>": 1288,
    "Mode": 1289,
    "Model</w>": 1290,
    "Se": 1291,
    "Bundle</w>": 1292,
    "81</w>": 1293,
    "102</w>": 1294,
    "107</w>": 1295,
    "116</w>": 1296,
    "127</w>": 1297,
    "135</w>": 1298,
    "137</w>": 1299,
    "141</w>": 1300,
    "149</w>": 1301,
    "162</w>": 1302,
    "165</w>": 1303,
    "170</w>": 1304,
    "179</w>": 1305,
    "190</w>": 1306,
    "198</w>": 1307,
    "տր": 1308,
    "միսելին</w>": 1309,
    "design</w>": 1310,
    "ron": 1311,
    "dif": 1312,
    "diffe": 1313,
    "so": 1314,
    "twe": 1315,
    "valu": 1316,
    "distribu": 1317,
    "ring</w>": 1318,
    "ally</w>": 1319,
    "tic</w>": 1320,
    "web</w>": 1321,
    "պատ": 1322,
    "cation</w>": 1323,
    "ross</w>": 1324,
    "ents</w>": 1325,
    "nec": 1326,
    "stu": 1327,
    "studi": 1328,
    "studies</w>": 1329,
    "cs</w>": 1330,
    "ysi": 1331,
    "sed</w>": 1332,
    "I</w>": 1333,
    "lan": 1334,
    "langu": 1335,
    "vel": 1336,
    "mul": 1337,
    "requ": 1338,
    "St": 1339,
    "Config</w>": 1340,
    "Client</w>": 1341,
    "Res": 1342,
    "88</w>": 1343,
    "101</w>": 1344,
    "103</w>": 1345,
    "104</w>": 1346,
    "105</w>": 1347,
    "106</w>": 1348,
    "108</w>": 1349,
    "110</w>": 1350,
    "111</w>": 1351,
    "112</w>": 1352,
    "113</w>": 1353,
    "114</w>": 1354,
    "115</w>": 1355,
    "117</w>": 1356,
    "118</w>": 1357,
    "119</w>": 1358,
    "121</w>": 1359,
    "122</w>": 1360,
    "124</w>": 1361,
    "125</w>": 1362,
    "126</w>": 1363,
    "129</w>": 1364,
    "131</w>": 1365,
    "132</w>": 1366,
    "133</w>": 1367,
    "136</w>": 1368,
    "138</w>": 1369,
    "139</w>": 1370,
    "140</w>": 1371,
    "143</w>": 1372,
    "144</w>": 1373,
    "145</w>": 1374,
    "146</w>": 1375,
    "147</w>": 1376,
    "150</w>": 1377,
    "151</w>": 1378,
    "152</w>": 1379,
    "153</w>": 1380,
    "154</w>": 1381,
    "157</w>": 1382,
    "159</w>": 1383,
    "160</w>": 1384,
    "161</w>": 1385,
    "164</w>": 1386,
    "166</w>": 1387,
    "167</w>": 1388,
    "168</w>": 1389,
    "169</w>": 1390,
    "171</w>": 1391,
    "173</w>": 1392,
    "174</w>": 1393,
    "175</w>": 1394,
    "176</w>": 1395,
    "177</w>": 1396,
    "178</w>": 1397,
    "180</w>": 1398,
    "181</w>": 1399,
    "182</w>": 1400,
    "184</w>": 1401,
    "185</w>": 1402,
    "187</w>": 1403,
    "188</w>": 1404,
    "189</w>": 1405,
    "192</w>": 1406,
    "194</w>": 1407,
    "195</w>": 1408,
    "196</w>": 1409,
    "199</w>": 1410,
    "40": 1411,
    "05</w>": 1412,
    "acce": 1413,
    "system</w>": 1414,
    "ties</w>": 1415,
    "for": 1416,
    "cture</w>": 1417,
    "services</w>": 1418,
    "ուր": 1419,
    "viron": 1420,
    "reduces</w>": 1421,
    "ical</w>": 1422,
    "ճո": 1423,
    "ss": 1424,
    "train": 1425,
    "unc": 1426,
    "conver": 1427,
    "ine": 1428,
    "ph": 1429,
    "enables</w>": 1430,
    "ution</w>": 1431,
    "combines</w>": 1432,
    "user": 1433,
    "users</w>": 1434,
    "predi": 1435,
    "հար": 1436,
    "հարաս": 1437,
    "betwe": 1438,
    "between</w>": 1439,
    "tual</w>": 1440,
    "networks</w>": 1441,
    "enc": 1442,
    "parame": 1443,
    "formance</w>": 1444,
    "նոր</w>": 1445,
    "սայ": 1446,
    "սայած": 1447,
    "սայածտ</w>": 1448,
    "eci": 1449,
    "proces": 1450,
    "cts</w>": 1451,
    "ity</w>": 1452,
    "generation</w>": 1453,
    "language</w>": 1454,
    "tives</w>": 1455,
    "ar</w>": 1456,
    "Pro": 1457,
    "vari": 1458,
    "str": 1459,
    "posi": 1460,
    "pa": 1461,
    "as</w>": 1462,
    "Dataset</w>": 1463,
    "Req": 1464,
    "Request</w>": 1465,
    "Tokenizer</w>": 1466,
    "210</w>": 1467,
    "235</w>": 1468,
    "260</w>": 1469,
    "273</w>": 1470,
    "298</w>": 1471,
    "323</w>": 1472,
    "336</w>": 1473,
    "361</w>": 1474,
    "386</w>": 1475,
    "399</w>": 1476,
    "70": 1477,
    "04</w>": 1478,
    "09</w>": 1479,
    "sibility</w>": 1480,
    "uni": 1481,
    "access</w>": 1482,
    "finds</w>": 1483,
    "auto": 1484,
    "tre": 1485,
    "խակ": 1486,
    "խակն": 1487,
    "խակնաման</w>": 1488,
    "itecture</w>": 1489,
    "deci": 1490,
    "ture</w>": 1491,
    "մանկային</w>": 1492,
    "differe": 1493,
    "coor": 1494,
    "coordin": 1495,
    "aliz": 1496,
    "կարություն</w>": 1497,
    "T</w>": 1498,
    "progra": 1499,
    "func": 1500,
    "պր": 1501,
    "distribution</w>": 1502,
    "exec": 1503,
    "chang": 1504,
    "changes</w>": 1505,
    "cre": 1506,
    "ճաման</w>": 1507,
    "improves</w>": 1508,
    "dual</w>": 1509,
    "rst</w>": 1510,
    "ten": 1511,
    "mory</w>": 1512,
    "հարաստ</w>": 1513,
    "իր": 1514,
    "appli": 1515,
    "ption</w>": 1516,
    "ir": 1517,
    "bal": 1518,
    "balan": 1519,
    "paramete": 1520,
    "parameters</w>": 1521,
    "uses</w>": 1522,
    "environ": 1523,
    "tech": 1524,
    "techno": 1525,
    "technology</w>": 1526,
    "մաշինային</w>": 1527,
    "հասատրական</w>": 1528,
    "ությունի</w>": 1529,
    "ներին</w>": 1530,
    "provide</w>": 1531,
    "ab": 1532,
    "formation</w>": 1533,
    "testing</w>": 1534,
    "connec": 1535,
    "defi": 1536,
    "defin": 1537,
    "stru": 1538,
    "AP": 1539,
    "requests</w>": 1540,
    "mis": 1541,
    "sing</w>": 1542,
    "name</w>": 1543,
    "ho": 1544,
    "work": 1545,
    "Store</w>": 1546,
    "Session</w>": 1547,
    "Response</w>": 1548,
    "211</w>": 1549,
    "224</w>": 1550,
    "249</w>": 1551,
    "Pipeline</w>": 1552,
    "274</w>": 1553,
    "287</w>": 1554,
    "312</w>": 1555,
    "337</w>": 1556,
    "350</w>": 1557,
    "375</w>": 1558,
    "449</w>": 1559,
    "512</w>": 1560,
    "575</w>": 1561,
    "638</w>": 1562,
    "701</w>": 1563,
    "764</w>": 1564,
    "827</w>": 1565,
    "890</w>": 1566,
    "953</w>": 1567,
    "1016</w>": 1568,
    "1079</w>": 1569,
    "1142</w>": 1570,
    "1205</w>": 1571,
    "1268</w>": 1572,
    "1331</w>": 1573,
    "1394</w>": 1574,
    "140": 1575,
    "1457</w>": 1576,
    "1520</w>": 1577,
    "1583</w>": 1578,
    "1646</w>": 1579,
    "1709</w>": 1580,
    "1772</w>": 1581,
    "1835</w>": 1582,
    "1898</w>": 1583,
    "1961</w>": 1584,
    "2024</w>": 1585,
    "2087</w>": 1586,
    "424</w>": 1587,
    "462</w>": 1588,
    "525</w>": 1589,
    "cessibility</w>": 1590,
    "ensu": 1591,
    "ensures</w>": 1592,
    "with": 1593,
    "us</w>": 1594,
    "plat": 1595,
    "platfor": 1596,
    "architecture</w>": 1597,
    "tical</w>": 1598,
    "պուր": 1599,
    "պուրգ": 1600,
    "պուրգայ": 1601,
    "պուրգայուն</w>": 1602,
    "նըն</w>": 1603,
    "decision</w>": 1604,
    "mental</w>": 1605,
    "zes</w>": 1606,
    "liver": 1607,
    "ages</w>": 1608,
    "ans</w>": 1609,
    "տվու": 1610,
    "տվությու": 1611,
    "տրան": 1612,
    "տրանս": 1613,
    "տրանսզ": 1614,
    "devices</w>": 1615,
    "թամին": 1616,
    "թամինն": 1617,
    "թամիններ</w>": 1618,
    "program": 1619,
    "programming</w>": 1620,
    "evalu": 1621,
    "պրած": 1622,
    "պրածք": 1623,
    "descri": 1624,
    "ural</w>": 1625,
    "cally</w>": 1626,
    "execution</w>": 1627,
    "ence</w>": 1628,
    "token": 1629,
    "tokens</w>": 1630,
    "րին</w>": 1631,
    "exp": 1632,
    "predic": 1633,
    "by</w>": 1634,
    "work</w>": 1635,
    "flow</w>": 1636,
    "պատվու": 1637,
    "ույ": 1638,
    "Fe": 1639,
    "hi": 1640,
    "anal": 1641,
    "reso": 1642,
    "resour": 1643,
    "resource</w>": 1644,
    "across</w>": 1645,
    "ry": 1646,
    "bli": 1647,
    "usto": 1648,
    "աշ": 1649,
    "comple": 1650,
    "ology</w>": 1651,
    "mics</w>": 1652,
    "vity</w>": 1653,
    "elec": 1654,
    "stor": 1655,
    "performance</w>": 1656,
    "acti": 1657,
    "actions</w>": 1658,
    "են": 1659,
    "mer</w>": 1660,
    "speci": 1661,
    "memory</w>": 1662,
    "physi": 1663,
    "physical</w>": 1664,
    "gori": 1665,
    "based</w>": 1666,
    "ced</w>": 1667,
    "In": 1668,
    "oper": 1669,
    "AI</w>": 1670,
    "eval</w>": 1671,
    "bed": 1672,
    "wa": 1673,
    "multi": 1674,
    "multip": 1675,
    "multiple</w>": 1676,
    "processes</w>": 1677,
    "rgan": 1678,
    "comm": 1679,
    "ach": 1680,
    "um</w>": 1681,
    "states</w>": 1682,
    "ve": 1683,
    "ality</w>": 1684,
    "gradi": 1685,
    "enti": 1686,
    "մի</w>": 1687,
    "produ": 1688,
    "ets</w>": 1689,
    "devel": 1690,
    "develop": 1691,
    "G</w>": 1692,
    "200</w>": 1693,
    "203</w>": 1694,
    "204</w>": 1695,
    "218</w>": 1696,
    "221</w>": 1697,
    "231</w>": 1698,
    "246</w>": 1699,
    "256</w>": 1700,
    "259</w>": 1701,
    "281</w>": 1702,
    "284</w>": 1703,
    "294</w>": 1704,
    "309</w>": 1705,
    "319</w>": 1706,
    "322</w>": 1707,
    "344</w>": 1708,
    "347</w>": 1709,
    "357</w>": 1710,
    "372</w>": 1711,
    "382</w>": 1712,
    "385</w>": 1713,
    "400</w>": 1714,
    "463</w>": 1715,
    "526</w>": 1716,
    "589</w>": 1717,
    "652</w>": 1718,
    "715</w>": 1719,
    "778</w>": 1720,
    "841</w>": 1721,
    "904</w>": 1722,
    "967</w>": 1723,
    "02</w>": 1724,
    "1030</w>": 1725,
    "1093</w>": 1726,
    "1156</w>": 1727,
    "1219</w>": 1728,
    "1282</w>": 1729,
    "1345</w>": 1730,
    "1408</w>": 1731,
    "1471</w>": 1732,
    "1534</w>": 1733,
    "1597</w>": 1734,
    "1660</w>": 1735,
    "1723</w>": 1736,
    "1786</w>": 1737,
    "1849</w>": 1738,
    "1912</w>": 1739,
    "1975</w>": 1740,
    "2038</w>": 1741,
    "438</w>": 1742,
    "413</w>": 1743,
    "476</w>": 1744,
    "539</w>": 1745,
    "mach": 1746,
    "trees</w>": 1747,
    "minim": 1748,
    "ճն": 1749,
    "ճնտր": 1750,
    "ճնտրություն</w>": 1751,
    "vice</w>": 1752,
    "usa": 1753,
    "usable</w>": 1754,
    "cro": 1755,
    "lay": 1756,
    "միսեր</w>": 1757,
    "այու": 1758,
    "ava": 1759,
    "sion": 1760,
    "ability</w>": 1761,
    "ot": 1762,
    "sive</w>": 1763,
    "different</w>": 1764,
    "scre": 1765,
    "sizes</w>": 1766,
    "livery</w>": 1767,
    "medi": 1768,
    "eng": 1769,
    "իմաս": 1770,
    "coordinates</w>": 1771,
    "բարաքըն</w>": 1772,
    "ստվությու": 1773,
    "ստվություն</w>": 1774,
    "հայտ": 1775,
    "ճովու": 1776,
    "տրանսզոր</w>": 1777,
    "prese": 1778,
    "ligh": 1779,
    "պրածք</w>": 1780,
    "ech": 1781,
    "converts</w>": 1782,
    "describ": 1783,
    "describes</w>": 1784,
    "Sc": 1785,
    "Scrip": 1786,
    "Script</w>": 1787,
    "server": 1788,
    "servers</w>": 1789,
    "ru": 1790,
    "respon": 1791,
    "responses</w>": 1792,
    "ումին</w>": 1793,
    "documents</w>": 1794,
    "kno": 1795,
    "know": 1796,
    "knowle": 1797,
    "knowledge</w>": 1798,
    "evaluates</w>": 1799,
    "outcom": 1800,
    "HT": 1801,
    "L</w>": 1802,
    "values</w>": 1803,
    "indi": 1804,
    "indivi": 1805,
    "individual</w>": 1806,
    "predictions</w>": 1807,
    "int</w>": 1808,
    "էն": 1809,
    "տեղն": 1810,
    "deter": 1811,
    "determin": 1812,
    "rates</w>": 1813,
    "code</w>": 1814,
    "ai": 1815,
    "over</w>": 1816,
    "ban</w>": 1817,
    "vis": 1818,
    "visu": 1819,
    "պատվում": 1820,
    "tention</w>": 1821,
    "lou": 1822,
    "իրան</w>": 1823,
    "application</w>": 1824,
    "computing</w>": 1825,
    "Vir": 1826,
    "Virtual</w>": 1827,
    "encry": 1828,
    "pu": 1829,
    "ացն": 1830,
    "compon": 1831,
    "components</w>": 1832,
    "custo": 1833,
    "run": 1834,
    "remo": 1835,
    "removes</w>": 1836,
    "Bay": 1837,
    "Bayes</w>": 1838,
    "clas": 1839,
    "efficient</w>": 1840,
    "environment</w>": 1841,
    "ble": 1842,
    "gl": 1843,
    "spac": 1844,
    "ene": 1845,
    "storage</w>": 1846,
    "manages</w>": 1847,
    "analysi": 1848,
    "analysis</w>": 1849,
    "Mix": 1850,
    "ացն</w>": 1851,
    "interactions</w>": 1852,
    "կան</w>": 1853,
    "առղ": 1854,
    "առղեն": 1855,
    "mate": 1856,
    "material": 1857,
    "materials</w>": 1858,
    "ations</w>": 1859,
    "labe": 1860,
    "pat": 1861,
    "patter": 1862,
    "fies</w>": 1863,
    "training</w>": 1864,
    "plann": 1865,
    "planning</w>": 1866,
    "needs</w>": 1867,
    "միսելինին</w>": 1868,
    "car": 1869,
    "gorith": 1870,
    "acing</w>": 1871,
    "fol": 1872,
    "lows</w>": 1873,
    "imp": 1874,
    "gi": 1875,
    "gital</w>": 1876,
    "Inter": 1877,
    "ance</w>": 1878,
    "rap": 1879,
    "raph": 1880,
    "at</w>": 1881,
    "city</w>": 1882,
    "water</w>": 1883,
    "deep</w>": 1884,
    "La": 1885,
    "integ": 1886,
    "cle": 1887,
    "vely</w>": 1888,
    "cel": 1889,
    "tabo": 1890,
    "organ": 1891,
    "define</w>": 1892,
    "ries</w>": 1893,
    "main": 1894,
    "U</w>": 1895,
    "tings</w>": 1896,
    "creates</w>": 1897,
    "communi": 1898,
    "communication</w>": 1899,
    "tic": 1900,
    "por": 1901,
    "decom": 1902,
    "Be": 1903,
    "proba": 1904,
    "variab": 1905,
    "variables</w>": 1906,
    "platform</w>": 1907,
    "Su": 1908,
    "tor": 1909,
    "add": 1910,
    "Per": 1911,
    "dim": 1912,
    "dimen": 1913,
    "crea": 1914,
    "information</w>": 1915,
    "beddin": 1916,
    "beddings</w>": 1917,
    "efficien": 1918,
    "efficiently</w>": 1919,
    "մատ": 1920,
    "handles</w>": 1921,
    "API</w>": 1922,
    "ումի</w>": 1923,
    "bili": 1924,
    "reli": 1925,
    "without</w>": 1926,
    "ip</w>": 1927,
    "connections</w>": 1928,
    "nch": 1929,
    "nchro": 1930,
    "nchrono": 1931,
    "struction</w>": 1932,
    "ճով": 1933,
    "simul": 1934,
    "all</w>": 1935,
    "նվ": 1936,
    "ency</w>": 1937,
    "Mul": 1938,
    "Multi": 1939,
    "cen": 1940,
    "first</w>": 1941,
    "հավաստերի</w>": 1942,
    "development</w>": 1943,
    "path</w>": 1944,
    "url</w>": 1945,
    "get</w>": 1946,
    "Er": 1947,
    "Erro": 1948,
    "Error</w>": 1949,
    "total</w>": 1950,
    "wer</w>": 1951,
    "format</w>": 1952,
    "output</w>": 1953,
    "ema": 1954,
    "emai": 1955,
    "email</w>": 1956,
    "CON": 1957,
    "CONF": 1958,
    "CONFI": 1959,
    "CONFIG</w>": 1960,
    "read</w>": 1961,
    "201</w>": 1962,
    "202</w>": 1963,
    "205</w>": 1964,
    "206</w>": 1965,
    "207</w>": 1966,
    "208</w>": 1967,
    "209</w>": 1968,
    "217</w>": 1969,
    "225</w>": 1970,
    "228</w>": 1971,
    "238</w>": 1972,
    "242</w>": 1973,
    "253</w>": 1974,
    "263</w>": 1975,
    "266</w>": 1976,
    "267</w>": 1977,
    "280</w>": 1978,
    "288</w>": 1979,
    "291</w>": 1980,
    "301</w>": 1981,
    "305</w>": 1982,
    "316</w>": 1983,
    "326</w>": 1984,
    "329</w>": 1985,
    "330</w>": 1986,
    "343</w>": 1987,
    "351</w>": 1988,
    "354</w>": 1989,
    "364</w>": 1990,
    "368</w>": 1991,
    "379</w>": 1992,
    "389</w>": 1993,
    "392</w>": 1994,
    "393</w>": 1995,
    "407</w>": 1996,
    "435</w>": 1997,
    "470</w>": 1998,
    "498</w>": 1999,
    "533</w>": 2000,
    "561</w>": 2001,
    "596</w>": 2002,
    "624</w>": 2003,
    "659</w>": 2004,
    "687</w>": 2005,
    "722</w>": 2006,
    "750</w>": 2007,
    "785</w>": 2008,
    "813</w>": 2009,
    "848</w>": 2010,
    "876</w>": 2011,
    "911</w>": 2012,
    "939</w>": 2013,
    "974</w>": 2014,
    "1002</w>": 2015,
    "1037</w>": 2016,
    "1065</w>": 2017,
    "1100</w>": 2018,
    "1128</w>": 2019,
    "1163</w>": 2020,
    "1191</w>": 2021,
    "1226</w>": 2022,
    "1254</w>": 2023,
    "1289</w>": 2024,
    "1317</w>": 2025,
    "1352</w>": 2026,
    "1380</w>": 2027,
    "1415</w>": 2028,
    "1443</w>": 2029,
    "1478</w>": 2030,
    "150": 2031,
    "1506</w>": 2032,
    "1541</w>": 2033,
    "1569</w>": 2034,
    "1604</w>": 2035,
    "1632</w>": 2036,
    "1667</w>": 2037,
    "1695</w>": 2038,
    "1730</w>": 2039,
    "1758</w>": 2040,
    "1793</w>": 2041,
    "1821</w>": 2042,
    "1856</w>": 2043,
    "1884</w>": 2044,
    "1919</w>": 2045,
    "1947</w>": 2046,
    "1982</w>": 2047,
    "2010</w>": 2048,
    "2045</w>": 2049,
    "2073</w>": 2050,
    "410</w>": 2051,
    "445</w>": 2052,
    "420</w>": 2053,
    "448</w>": 2054,
    "483</w>": 2055,
    "511</w>": 2056,
    "546</w>": 2057,
    "Ac": 2058,
    "Accessibility</w>": 2059,
    "ing": 2060,
    "autono": 2061,
    "autonomo": 2062,
    "boo": 2063,
    "boosting</w>": 2064,
    "minimiz": 2065,
    "loss</w>": 2066,
    "proper": 2067,
    "properties</w>": 2068,
    "lli": 2069,
    "Service</w>": 2070,
    "orien": 2071,
    "oriented</w>": 2072,
    "builds</w>": 2073,
    "reusable</w>": 2074,
    "far": 2075,
    "farming</w>": 2076,
    "layers</w>": 2077,
    "երգ": 2078,
    "երգան": 2079,
    "երգանու": 2080,
    "երգանույու": 2081,
    "երգանույունըն</w>": 2082,
    "Total</w>": 2083,
    "blo": 2084,
    "bloc": 2085,
    "king</w>": 2086,
    "sions</w>": 2087,
    "stain": 2088,
    "eco": 2089,
    "logical</w>": 2090,
    "foot": 2091,
    "Respon": 2092,
    "Responsive</w>": 2093,
    "adap": 2094,
    "adapts</w>": 2095,
    "screen</w>": 2096,
    "robo": 2097,
    "robots</w>": 2098,
    "go": 2099,
    "usly</w>": 2100,
    "cial</w>": 2101,
    "audi": 2102,
    "ences</w>": 2103,
    "իմասություն</w>": 2104,
    "lea": 2105,
    "plans</w>": 2106,
    "ware</w>": 2107,
    "deploy": 2108,
    "deployments</w>": 2109,
    "հայտըն</w>": 2110,
    "contex": 2111,
    "alized</w>": 2112,
    "word</w>": 2113,
    "represe": 2114,
    "representa": 2115,
    "representations</w>": 2116,
    "MQ": 2117,
    "ght</w>": 2118,
    "mess": 2119,
    "aging</w>": 2120,
    "trained</w>": 2121,
    "trea": 2122,
    "treats</w>": 2123,
    "computation</w>": 2124,
    "functions</w>": 2125,
    "ղինին</w>": 2126,
    "լայնի</w>": 2127,
    "spe": 2128,
    "speech": 2129,
    "speech</w>": 2130,
    "red</w>": 2131,
    "ship</w>": 2132,
    "nat": 2133,
    "om": 2134,
    "metri": 2135,
    "Java": 2136,
    "JavaScript</w>": 2137,
    "vation</w>": 2138,
    "differen": 2139,
    "differenti": 2140,
    "Cha": 2141,
    "engine": 2142,
    "enginee": 2143,
    "engineering</w>": 2144,
    "tionally</w>": 2145,
    "pts</w>": 2146,
    "resi": 2147,
    "sub": 2148,
    "sets</w>": 2149,
    "incre": 2150,
    "միվուրին</w>": 2151,
    "HTM": 2152,
    "HTML</w>": 2153,
    "accessibility</w>": 2154,
    "SE": 2155,
    "First</w>": 2156,
    "conten": 2157,
    "content": 2158,
    "contentful</w>": 2159,
    "paint</w>": 2160,
    "rendering</w>": 2161,
    "տեղնկ": 2162,
    "տեղնկական</w>": 2163,
    "determines</w>": 2164,
    "encode</w>": 2165,
    "ven": 2166,
    "fra": 2167,
    "frame": 2168,
    "framework</w>": 2169,
    "visualiz": 2170,
    "visualizes</w>": 2171,
    "delivery</w>": 2172,
    "պատվում</w>": 2173,
    "ռջ": 2174,
    "ույն</w>": 2175,
    "ման</w>": 2176,
    "control</w>": 2177,
    "կիրան</w>": 2178,
    "ling</w>": 2179,
    "discover": 2180,
    "discovers</w>": 2181,
    "col": 2182,
    "colle": 2183,
    "consum": 2184,
    "consumption</w>": 2185,
    "clou": 2186,
    "cloud</w>": 2187,
    "improve</w>": 2188,
    "sh</w>": 2189,
    "balance</w>": 2190,
    "create</w>": 2191,
    "encryp": 2192,
    "encrypted</w>": 2193,
    "tun": 2194,
    "blic</w>": 2195,
    "նտեր": 2196,
    "նտերնե": 2197,
    "նտերնետ": 2198,
    "ավելին</w>": 2199,
    "elements</w>": 2200,
    "աշին": 2201,
    "ճովուրին</w>": 2202,
    "Prun": 2203,
    "Pruning</w>": 2204,
    "unnec": 2205,
    "unnece": 2206,
    "unnecess": 2207,
    "unnecessary</w>": 2208,
    "classi": 2209,
    "inde": 2210,
    "independ": 2211,
    "reas": 2212,
    "reason": 2213,
    "reasoning</w>": 2214,
    "proble": 2215,
    "problems</w>": 2216,
    "Gl": 2217,
    "aci": 2218,
    "meth": 2219,
    "metho": 2220,
    "bus": 2221,
    "busine": 2222,
    "business</w>": 2223,
    "ypo": 2224,
    "atte": 2225,
    "electri": 2226,
    "energ": 2227,
    "energy</w>": 2228,
    "chem": 2229,
    "Data</w>": 2230,
    "transmis": 2231,
    "transmission</w>": 2232,
    "require": 2233,
    "requirements</w>": 2234,
    "plac": 2235,
    "exa": 2236,
    "nding</w>": 2237,
    "cu": 2238,
    "tron</w>": 2239,
    "ծիր": 2240,
    "ծիրավ": 2241,
    "neural</w>": 2242,
    "network</w>": 2243,
    "Bi": 2244,
    "Bio": 2245,
    "interact</w>": 2246,
    "bio": 2247,
    "applica": 2248,
    "applications</w>": 2249,
    "tracks</w>": 2250,
    "customer</w>": 2251,
    "lution</w>": 2252,
    "եբ": 2253,
    "matical</w>": 2254,
    "միսուվինին</w>": 2255,
    "tends</w>": 2256,
    "processing</w>": 2257,
    "tects</w>": 2258,
    "patterns</w>": 2259,
    "den": 2260,
    "conversion</w>": 2261,
    "dro": 2262,
    "ffs</w>": 2263,
    "attention</w>": 2264,
    "fu": 2265,
    "future</w>": 2266,
    "Cap": 2267,
    "gro": 2268,
    "fores": 2269,
    "forests</w>": 2270,
    "diver": 2271,
    "sity</w>": 2272,
    "carb": 2273,
    "carbon</w>": 2274,
    "էնել": 2275,
    "էնել</w>": 2276,
    "Al": 2277,
    "proce": 2278,
    "lv": 2279,
    "lving</w>": 2280,
    "tree</w>": 2281,
    "thres": 2282,
    "thresho": 2283,
    "threshol": 2284,
    "thresholds</w>": 2285,
    "Tr": 2286,
    "imple": 2287,
    "que": 2288,
    "toco": 2289,
    "tocol</w>": 2290,
    "moder": 2291,
    "obal</w>": 2292,
    "Retri": 2293,
    "Retrieval</w>": 2294,
    "aug": 2295,
    "augmen": 2296,
    "augmented</w>": 2297,
    "retrieval</w>": 2298,
    "Po": 2299,
    "rapi": 2300,
    "rapid</w>": 2301,
    "stic</w>": 2302,
    "side</w>": 2303,
    "Hy": 2304,
    "generates</w>": 2305,
    "Go</w>": 2306,
    "cated</w>": 2307,
    "hu": 2308,
    "huma": 2309,
    "activity</w>": 2310,
    "clear</w>": 2311,
    "thei": 2312,
    "their</w>": 2313,
    "GP": 2314,
    "ft</w>": 2315,
    "ju": 2316,
    "signi": 2317,
    "signifi": 2318,
    "signific": 2319,
    "motional</w>": 2320,
    "connects</w>": 2321,
    "ings</w>": 2322,
    "mpt</w>": 2323,
    "outpu": 2324,
    "outputs</w>": 2325,
    "Fa": 2326,
    "allows</w>": 2327,
    "cells</w>": 2328,
    "typ": 2329,
    "metabo": 2330,
    "metaboli": 2331,
    "organis": 2332,
    "organisms</w>": 2333,
    "Bo": 2334,
    "ճվու": 2335,
    "ներ": 2336,
    "ղին</w>": 2337,
    "set": 2338,
    "settings</w>": 2339,
    "improv": 2340,
    "improvement</w>": 2341,
    "operations</w>": 2342,
    "prin": 2343,
    "decompose</w>": 2344,
    "տությունի</w>": 2345,
    "sequ": 2346,
    "Mixed</w>": 2347,
    "integer</w>": 2348,
    "Mach": 2349,
    "Machine</w>": 2350,
    "ակ</w>": 2351,
    "NE": 2352,
    "NET</w>": 2353,
    "Supply</w>": 2354,
    "cha": 2355,
    "chain</w>": 2356,
    "tics</w>": 2357,
    "tory</w>": 2358,
    "graph": 2359,
    "graphy</w>": 2360,
    "bra": 2361,
    "brain</w>": 2362,
    "ինինին</w>": 2363,
    "հավաստներին</w>": 2364,
    "addres": 2365,
    "addresses</w>": 2366,
    "C</w>": 2367,
    "stance</w>": 2368,
    "difference</w>": 2369,
    "բարաքին</w>": 2370,
    "esta": 2371,
    "establi": 2372,
    "mor": 2373,
    "ng": 2374,
    "lin": 2375,
    "links</w>": 2376,
    "ant": 2377,
    "antum</w>": 2378,
    "ando": 2379,
    "andom</w>": 2380,
    "mun": 2381,
    "Performance</w>": 2382,
    "run</w>": 2383,
    "large</w>": 2384,
    "samp": 2385,
    "use</w>": 2386,
    "exter": 2387,
    "external</w>": 2388,
    "propor": 2389,
    "variate</w>": 2390,
    "effec": 2391,
    "effects</w>": 2392,
    "digital</w>": 2393,
    "ticles</w>": 2394,
    "tary</w>": 2395,
    "fit</w>": 2396,
    "ector</w>": 2397,
    "using</w>": 2398,
    "embeddings</w>": 2399,
    "automa": 2400,
    "automati": 2401,
    "automatically</w>": 2402,
    "ular</w>": 2403,
    "resp": 2404,
    "machine</w>": 2405,
    "balanced</w>": 2406,
    "grou": 2407,
    "groups</w>": 2408,
    "gradient</w>": 2409,
    "եմատ": 2410,
    "եմատի": 2411,
    "եմատիկան</w>": 2412,
    "super": 2413,
    "labeled</w>": 2414,
    "ne</w>": 2415,
    "content</w>": 2416,
    "serva": 2417,
    "servability</w>": 2418,
    "insig": 2419,
    "insigh": 2420,
    "internal</w>": 2421,
    "sele": 2422,
    "selects</w>": 2423,
    "tively</w>": 2424,
    "outcome</w>": 2425,
    "bilities</w>": 2426,
    "each": 2427,
    "best</w>": 2428,
    "ricul": 2429,
    "gradients</w>": 2430,
    "position</w>": 2431,
    "gar": 2432,
    "complete</w>": 2433,
    "task": 2434,
    "tasks</w>": 2435,
    "ծու": 2436,
    "ծուց": 2437,
    "reliability</w>": 2438,
    "psy": 2439,
    "psych": 2440,
    "psychology</w>": 2441,
    "ություն": 2442,
    "Sk": 2443,
    "Skip</w>": 2444,
    "help</w>": 2445,
    "dri": 2446,
    "asy": 2447,
    "asynchrono": 2448,
    "algorith": 2449,
    "algorithm</w>": 2450,
    "defines</w>": 2451,
    "instruction</w>": 2452,
    "tracing</w>": 2453,
    "scrip": 2454,
    "mainta": 2455,
    "maintain": 2456,
    "positives</w>": 2457,
    "Pe": 2458,
    "efficiency</w>": 2459,
    "frequ": 2460,
    "meets</w>": 2461,
    "Code</w>": 2462,
    "research</w>": 2463,
    "fic</w>": 2464,
    "centr": 2465,
    "ding</w>": 2466,
    "fied</w>": 2467,
    "TP</w>": 2468,
    "Cross</w>": 2469,
    "able</w>": 2470,
    "es": 2471,
    "mod": 2472,
    "whe": 2473,
    "whether</w>": 2474,
    "econ": 2475,
    "API": 2476,
    "APIs</w>": 2477,
    "նվի": 2478,
    "նվիգ": 2479,
    "նվիգային</w>": 2480,
    "consi": 2481,
    "consiste": 2482,
    "data": 2483,
    "database</w>": 2484,
    "function": 2485,
    "functionality</w>": 2486,
    "simulta": 2487,
    "simultane": 2488,
    "simultaneou": 2489,
    "simultaneous": 2490,
    "simultaneously</w>": 2491,
    "open</w>": 2492,
    "fetch</w>": 2493,
    "rai": 2494,
    "raise</w>": 2495,
    "Value": 2496,
    "ValueError</w>": 2497,
    "missing</w>": 2498,
    "sum</w>": 2499,
    "price</w>": 2500,
    "strip": 2501,
    "strip</w>": 2502,
    "lower</w>": 2503,
    "jo": 2504,
    "join</w>": 2505,
    "debug</w>": 2506,
    "False</w>": 2507,
    "need</w>": 2508,
    "app</w>": 2509,
    "version</w>": 2510,
    "numpy</w>": 2511,
    "80": 2512,
    "8080</w>": 2513,
    "host</w>": 2514,
    "workers</w>": 2515,
    "212</w>": 2516,
    "213</w>": 2517,
    "214</w>": 2518,
    "215</w>": 2519,
    "216</w>": 2520,
    "219</w>": 2521,
    "220</w>": 2522,
    "222</w>": 2523,
    "223</w>": 2524,
    "226</w>": 2525,
    "227</w>": 2526,
    "229</w>": 2527,
    "230</w>": 2528,
    "232</w>": 2529,
    "233</w>": 2530,
    "234</w>": 2531,
    "236</w>": 2532,
    "237</w>": 2533,
    "239</w>": 2534,
    "240</w>": 2535,
    "241</w>": 2536,
    "243</w>": 2537,
    "244</w>": 2538,
    "245</w>": 2539,
    "247</w>": 2540,
    "248</w>": 2541,
    "250</w>": 2542,
    "251</w>": 2543,
    "252</w>": 2544,
    "254</w>": 2545,
    "255</w>": 2546,
    "257</w>": 2547,
    "258</w>": 2548,
    "261</w>": 2549,
    "262</w>": 2550,
    "264</w>": 2551,
    "265</w>": 2552,
    "268</w>": 2553,
    "269</w>": 2554,
    "270</w>": 2555,
    "271</w>": 2556,
    "272</w>": 2557,
    "275</w>": 2558,
    "276</w>": 2559,
    "277</w>": 2560,
    "278</w>": 2561,
    "279</w>": 2562,
    "282</w>": 2563,
    "283</w>": 2564,
    "285</w>": 2565,
    "286</w>": 2566,
    "289</w>": 2567,
    "290</w>": 2568,
    "292</w>": 2569,
    "293</w>": 2570,
    "295</w>": 2571,
    "296</w>": 2572,
    "297</w>": 2573,
    "299</w>": 2574,
    "300</w>": 2575,
    "302</w>": 2576,
    "303</w>": 2577,
    "304</w>": 2578,
    "306</w>": 2579,
    "307</w>": 2580,
    "308</w>": 2581,
    "310</w>": 2582,
    "311</w>": 2583,
    "313</w>": 2584,
    "314</w>": 2585,
    "315</w>": 2586,
    "317</w>": 2587,
    "318</w>": 2588,
    "320</w>": 2589,
    "321</w>": 2590,
    "324</w>": 2591,
    "325</w>": 2592,
    "327</w>": 2593,
    "328</w>": 2594,
    "331</w>": 2595,
    "332</w>": 2596,
    "333</w>": 2597,
    "334</w>": 2598,
    "335</w>": 2599,
    "338</w>": 2600,
    "339</w>": 2601,
    "340</w>": 2602,
    "341</w>": 2603,
    "342</w>": 2604,
    "345</w>": 2605,
    "346</w>": 2606,
    "348</w>": 2607,
    "349</w>": 2608,
    "352</w>": 2609,
    "353</w>": 2610,
    "355</w>": 2611,
    "356</w>": 2612,
    "358</w>": 2613,
    "359</w>": 2614,
    "360</w>": 2615,
    "362</w>": 2616,
    "363</w>": 2617,
    "365</w>": 2618,
    "366</w>": 2619,
    "367</w>": 2620,
    "369</w>": 2621,
    "370</w>": 2622,
    "371</w>": 2623,
    "373</w>": 2624,
    "374</w>": 2625,
    "376</w>": 2626,
    "377</w>": 2627,
    "378</w>": 2628,
    "380</w>": 2629,
    "381</w>": 2630,
    "383</w>": 2631,
    "384</w>": 2632,
    "387</w>": 2633,
    "388</w>": 2634,
    "390</w>": 2635,
    "391</w>": 2636,
    "394</w>": 2637,
    "395</w>": 2638,
    "396</w>": 2639,
    "397</w>": 2640,
    "398</w>": 2641,
    "414</w>": 2642,
    "442</w>": 2643,
    "456</w>": 2644,
    "477</w>": 2645,
    "505</w>": 2646,
    "519</w>": 2647,
    "540</w>": 2648,
    "568</w>": 2649,
    "582</w>": 2650,
    "60": 2651,
    "603</w>": 2652,
    "631</w>": 2653,
    "645</w>": 2654,
    "666</w>": 2655,
    "694</w>": 2656,
    "708</w>": 2657,
    "729</w>": 2658,
    "757</w>": 2659,
    "771</w>": 2660,
    "792</w>": 2661,
    "820</w>": 2662,
    "834</w>": 2663,
    "855</w>": 2664,
    "883</w>": 2665,
    "897</w>": 2666,
    "918</w>": 2667,
    "946</w>": 2668,
    "960</w>": 2669,
    "981</w>": 2670,
    "1009</w>": 2671,
    "1023</w>": 2672,
    "1044</w>": 2673,
    "1072</w>": 2674,
    "1086</w>": 2675,
    "1107</w>": 2676,
    "1135</w>": 2677,
    "1149</w>": 2678,
    "1170</w>": 2679,
    "1198</w>": 2680,
    "1212</w>": 2681,
    "1233</w>": 2682,
    "1261</w>": 2683,
    "1275</w>": 2684,
    "1296</w>": 2685,
    "1324</w>": 2686,
    "1338</w>": 2687,
    "1359</w>": 2688,
    "1387</w>": 2689,
    "1401</w>": 2690,
    "1422</w>": 2691,
    "1450</w>": 2692,
    "1464</w>": 2693,
    "1485</w>": 2694,
    "1513</w>": 2695,
    "1527</w>": 2696,
    "1548</w>": 2697,
    "1576</w>": 2698,
    "1590</w>": 2699,
    "1611</w>": 2700,
    "1639</w>": 2701,
    "1653</w>": 2702,
    "1674</w>": 2703,
    "1702</w>": 2704,
    "1716</w>": 2705,
    "1737</w>": 2706,
    "1765</w>": 2707,
    "1779</w>": 2708,
    "180": 2709,
    "1800</w>": 2710,
    "1828</w>": 2711,
    "1842</w>": 2712,
    "1863</w>": 2713,
    "1891</w>": 2714,
    "1905</w>": 2715,
    "1926</w>": 2716,
    "1954</w>": 2717,
    "1968</w>": 2718,
    "1989</w>": 2719,
    "2017</w>": 2720,
    "2031</w>": 2721,
    "2052</w>": 2722,
    "2080</w>": 2723,
    "2094</w>": 2724,
    "417</w>": 2725,
    "431</w>": 2726,
    "406</w>": 2727,
    "427</w>": 2728,
    "455</w>": 2729,
    "469</w>": 2730,
    "490</w>": 2731,
    "518</w>": 2732,
    "532</w>": 2733,
    "univer": 2734,
    "univers": 2735,
    "universal</w>": 2736,
    "OS": 2737,
    "OSP": 2738,
    "OSPF": 2739,
    "OSPF</w>": 2740,
    "shor": 2741,
    "shortest</w>": 2742,
    "path": 2743,
    "paths</w>": 2744,
    "within</w>": 2745,
    "sing": 2746,
    "single</w>": 2747,
    "autonomous</w>": 2748,
    "Gra": 2749,
    "Gradi": 2750,
    "Gradient</w>": 2751,
    "machines</w>": 2752,
    "minimize</w>": 2753,
    "Remo": 2754,
    "Remote</w>": 2755,
    "sen": 2756,
    "sensing</w>": 2757,
    "Ear": 2758,
    "Earth</w>": 2759,
    "sate": 2760,
    "satelli": 2761,
    "satellite</w>": 2762,
    "platforms</w>": 2763,
    "Ver": 2764,
    "Vertical</w>": 2765,
    "grows</w>": 2766,
    "crops</w>": 2767,
    "stac": 2768,
    "stacke": 2769,
    "stacked</w>": 2770,
    "indo": 2771,
    "indoor</w>": 2772,
    "այուռ": 2773,
    "այուռատ": 2774,
    "այուռատին</w>": 2775,
    "blocking</w>": 2776,
    "thread</w>": 2777,
    "avai": 2778,
    "availa": 2779,
    "availability</w>": 2780,
    "Ar": 2781,
    "Arch": 2782,
    "Architecture</w>": 2783,
    "recor": 2784,
    "records</w>": 2785,
    "cap": 2786,
    "capture</w>": 2787,
    "decisions</w>": 2788,
    "Environ": 2789,
    "Environmental</w>": 2790,
    "sustain": 2791,
    "sustainability</w>": 2792,
    "ecological</w>": 2793,
    "footprint</w>": 2794,
    "De": 2795,
    "Delivery</w>": 2796,
    "transport</w>": 2797,
    "goo": 2798,
    "goods</w>": 2799,
    "autonomously</w>": 2800,
    "So": 2801,
    "Social</w>": 2802,
    "media</w>": 2803,
    "mar": 2804,
    "marke": 2805,
    "marketing</w>": 2806,
    "engages</w>": 2807,
    "audiences</w>": 2808,
    "online</w>": 2809,
    "Relea": 2810,
    "Release</w>": 2811,
    "sof": 2812,
    "soft": 2813,
    "software</w>": 2814,
    "ոռ": 2815,
    "ոռու": 2816,
    "ոռուս": 2817,
    "ոռուսությունին</w>": 2818,
    "միսուվելին</w>": 2819,
    "ատի": 2820,
    "ատիս": 2821,
    "ատիսին</w>": 2822,
    "ճովուր</w>": 2823,
    "EL": 2824,
    "ELM": 2825,
    "ELMo</w>": 2826,
    "contextu": 2827,
    "contextualized</w>": 2828,
    "MQT": 2829,
    "MQTT</w>": 2830,
    "lightwe": 2831,
    "lightwei": 2832,
    "lightweight</w>": 2833,
    "messaging</w>": 2834,
    "cons": 2835,
    "constrained</w>": 2836,
    "Func": 2837,
    "Functional</w>": 2838,
    "evaluation</w>": 2839,
    "վուղինին</w>": 2840,
    "Tex": 2841,
    "Text</w>": 2842,
    "syn": 2843,
    "synthe": 2844,
    "synthesi": 2845,
    "synthesis</w>": 2846,
    "writ": 2847,
    "writte": 2848,
    "written</w>": 2849,
    "spo": 2850,
    "spoken</w>": 2851,
    "audio</w>": 2852,
    "Sim": 2853,
    "Simon</w>": 2854,
    "Sine": 2855,
    "Sinek</w>": 2856,
    "explo": 2857,
    "explored</w>": 2858,
    "leade": 2859,
    "leader": 2860,
    "leadership</w>": 2861,
    "pur": 2862,
    "purpose</w>": 2863,
    "Norma": 2864,
    "Normal</w>": 2865,
    "many</w>": 2866,
    "natural</w>": 2867,
    "phen": 2868,
    "phenom": 2869,
    "phenomena": 2870,
    "phenomena</w>": 2871,
    "sym": 2872,
    "symmetri": 2873,
    "symmetrically</w>": 2874,
    "No": 2875,
    "Node</w>": 2876,
    "js</w>": 2877,
    "Value</w>": 2878,
    "inno": 2879,
    "innovation</w>": 2880,
    "differentiation</w>": 2881,
    "cost</w>": 2882,
    "Chao": 2883,
    "Chaos</w>": 2884,
    "inten": 2885,
    "intentionally</w>": 2886,
    "disru": 2887,
    "disrupts</w>": 2888,
    "resili": 2889,
    "resilience</w>": 2890,
    "Can": 2891,
    "Canary</w>": 2892,
    "gradu": 2893,
    "gradually</w>": 2894,
    "roll</w>": 2895,
    "subsets</w>": 2896,
    "Strea": 2897,
    "Streaming</w>": 2898,
    "deli": 2899,
    "deliver</w>": 2900,
    "incremen": 2901,
    "increment": 2902,
    "incrementally</w>": 2903,
    "ուին</w>": 2904,
    "մավ": 2905,
    "մավու": 2906,
    "մավուն": 2907,
    "մավունումին</w>": 2908,
    "հավաստում</w>": 2909,
    "Tech": 2910,
    "Techni": 2911,
    "Technical</w>": 2912,
    "writing</w>": 2913,
    "oth": 2914,
    "others</w>": 2915,
    "Imp": 2916,
    "Impact</w>": 2917,
    "measu": 2918,
    "measure": 2919,
    "measurement</w>": 2920,
    "social</w>": 2921,
    "outcomes</w>": 2922,
    "Seman": 2923,
    "Semantic</w>": 2924,
    "SEO": 2925,
    "SEO</w>": 2926,
    "SH": 2927,
    "SHA": 2928,
    "SHAP</w>": 2929,
    "expla": 2930,
    "explain</w>": 2931,
    "start</w>": 2932,
    "վան": 2933,
    "վանդ": 2934,
    "վանդին</w>": 2935,
    "էնակ": 2936,
    "էնակո": 2937,
    "էնակոնին</w>": 2938,
    "Memory</w>": 2939,
    "band": 2940,
    "bandwi": 2941,
    "bandwid": 2942,
    "bandwidth</w>": 2943,
    "transf": 2944,
    "transfer</w>": 2945,
    "Exper": 2946,
    "Expert</w>": 2947,
    "domain</w>": 2948,
    "rules</w>": 2949,
    "Ru": 2950,
    "Ruby</w>": 2951,
    "Rai": 2952,
    "Rails</w>": 2953,
    "conven": 2954,
    "convention</w>": 2955,
    "լեն": 2956,
    "լենու": 2957,
    "լենու</w>": 2958,
    "հայտին</w>": 2959,
    "նաս": 2960,
    "նասի</w>": 2961,
    "Kan": 2962,
    "Kanban</w>": 2963,
    "workflow</w>": 2964,
    "ռջումին</w>": 2965,
    "պար": 2966,
    "պարույն</w>": 2967,
    "միման</w>": 2968,
    "Retention</w>": 2969,
    "kee": 2970,
    "keeps</w>": 2971,
    "returning</w>": 2972,
    "Feature</w>": 2973,
    "flags</w>": 2974,
    "visibility</w>": 2975,
    "gradual</w>": 2976,
    "rol": 2977,
    "rollou": 2978,
    "rollouts</w>": 2979,
    "Top": 2980,
    "Topic</w>": 2981,
    "modeling</w>": 2982,
    "hid": 2983,
    "hidde": 2984,
    "hidden</w>": 2985,
    "them": 2986,
    "themes</w>": 2987,
    "document</w>": 2988,
    "collec": 2989,
    "collections</w>": 2990,
    "Continuous</w>": 2991,
    "profil": 2992,
    "profiling</w>": 2993,
    "analy": 2994,
    "analyzes</w>": 2995,
    "Fo": 2996,
    "Fog</w>": 2997,
    "distributes</w>": 2998,
    "edge</w>": 2999,
    "nodes</w>": 3000,
    "hash</w>": 3001,
    "priv": 3002,
    "private</w>": 3003,
    "tunne": 3004,
    "tunnels</w>": 3005,
    "public</w>": 3006,
    "նտերնետին</w>": 3007,
    "կառիտ": 3008,
    "կառիտացն": 3009,
    "կառիտացնինին</w>": 3010,
    "We": 3011,
    "Web</w>": 3012,
    "custom</w>": 3013,
    "աշինի</w>": 3014,
    "երիցված": 3015,
    "երիցվածություն</w>": 3016,
    "Na": 3017,
    "Naive</w>": 3018,
    "classifi": 3019,
    "classifier</w>": 3020,
    "theo": 3021,
    "theore": 3022,
    "theorem</w>": 3023,
    "independence</w>": 3024,
    "assumption</w>": 3025,
    "Vi": 3026,
    "Vim</w>": 3027,
    "edi": 3028,
    "editing</w>": 3029,
    "Chain</w>": 3030,
    "brea": 3031,
    "breaks</w>": 3032,
    "complex</w>": 3033,
    "Glaci": 3034,
    "Glaciology</w>": 3035,
    "glaci": 3036,
    "glaciers</w>": 3037,
    "she": 3038,
    "sheet</w>": 3039,
    "dy": 3040,
    "dyna": 3041,
    "dynamics</w>": 3042,
    "Le": 3043,
    "Lean</w>": 3044,
    "star": 3045,
    "startu": 3046,
    "startup</w>": 3047,
    "methodo": 3048,
    "methodology</w>": 3049,
    "validates</w>": 3050,
    "hypo": 3051,
    "hypothe": 3052,
    "hypotheses</w>": 3053,
    "Gen": 3054,
    "Gener": 3055,
    "General</w>": 3056,
    "relati": 3057,
    "relativity</w>": 3058,
    "gravity</w>": 3059,
    "space": 3060,
    "spacetime</w>": 3061,
    "curv": 3062,
    "curvature</w>": 3063,
    "Batte": 3064,
    "Battery</w>": 3065,
    "sto": 3066,
    "stores</w>": 3067,
    "electrical</w>": 3068,
    "chemi": 3069,
    "chemically</w>": 3070,
    "compression</w>": 3071,
    "Stor": 3072,
    "Storage</w>": 3073,
    "placement</w>": 3074,
    "Cri": 3075,
    "Critical</w>": 3076,
    "examin": 3077,
    "examines</w>": 3078,
    "assump": 3079,
    "assumptions</w>": 3080,
    "evi": 3081,
    "evidence</w>": 3082,
    "Mixture</w>": 3083,
    "exper": 3084,
    "experts</w>": 3085,
    "activ": 3086,
    "activates</w>": 3087,
    "only</w>": 3088,
    "Chem": 3089,
    "Chemical</w>": 3090,
    "bonding</w>": 3091,
    "forms</w>": 3092,
    "mole": 3093,
    "molecu": 3094,
    "molecules</w>": 3095,
    "electron</w>": 3096,
    "ծիրավկան</w>": 3097,
    "առղենությունի</w>": 3098,
    "transfor": 3099,
    "transformer</w>": 3100,
    "այու</w>": 3101,
    "Biomaterials</w>": 3102,
    "biological</w>": 3103,
    "medical</w>": 3104,
    "Custo": 3105,
    "Customer</w>": 3106,
    "relation": 3107,
    "relationship</w>": 3108,
    "Evo": 3109,
    "Evolution</w>": 3110,
    "species</w>": 3111,
    "generations</w>": 3112,
    "նա": 3113,
    "նալ": 3114,
    "նալի": 3115,
    "նալիային</w>": 3116,
    "եբն": 3117,
    "եբնությունին</w>": 3118,
    "միսեր": 3119,
    "միսերինին</w>": 3120,
    "ավելի</w>": 3121,
    "Par": 3122,
    "Part</w>": 3123,
    "tagg": 3124,
    "tagging</w>": 3125,
    "labels</w>": 3126,
    "words</w>": 3127,
    "gram": 3128,
    "grammatical</w>": 3129,
    "roles</w>": 3130,
    "առամ": 3131,
    "առամին</w>": 3132,
    "extends</w>": 3133,
    "disk": 3134,
    "disk</w>": 3135,
    "Q</w>": 3136,
    "learns</w>": 3137,
    "optimal</w>": 3138,
    "expe": 3139,
    "experi": 3140,
    "experience</w>": 3141,
    "Comp": 3142,
    "Comple": 3143,
    "Complex</w>": 3144,
    "detects</w>": 3145,
    "mean": 3146,
    "meaning": 3147,
    "meaningful</w>": 3148,
    "strea": 3149,
    "streams</w>": 3150,
    "Fun": 3151,
    "Funne": 3152,
    "Funnel</w>": 3153,
    "iden": 3154,
    "identi": 3155,
    "identifies</w>": 3156,
    "dropo": 3157,
    "dropoffs</w>": 3158,
    "Ma": 3159,
    "Mask": 3160,
    "Masked</w>": 3161,
    "prev": 3162,
    "prevents</w>": 3163,
    "attending</w>": 3164,
    "during</w>": 3165,
    "Capac": 3166,
    "Capacity</w>": 3167,
    "fore": 3168,
    "foreca": 3169,
    "forecasts</w>": 3170,
    "grow": 3171,
    "growth</w>": 3172,
    "տայու": 3173,
    "տայուն": 3174,
    "տայուններին</w>": 3175,
    "Def": 3176,
    "Defo": 3177,
    "Defores": 3178,
    "Deforestation</w>": 3179,
    "reduc": 3180,
    "reducing</w>": 3181,
    "biodiver": 3182,
    "biodiversity</w>": 3183,
    "ացար": 3184,
    "ացարպատ": 3185,
    "ացարպատին": 3186,
    "ացարպատինտ": 3187,
    "ացարպատինտույ": 3188,
    "ացարպատինտույին</w>": 3189,
    "տրանսզոր": 3190,
    "տրանսզորներին</w>": 3191,
    "Algorith": 3192,
    "Algorithms</w>": 3193,
    "procedu": 3194,
    "procedures</w>": 3195,
    "solving</w>": 3196,
    "իմնակ": 3197,
    "իմնակական</w>": 3198,
    "splits</w>": 3199,
    "Tracing</w>": 3200,
    "follows</w>": 3201,
    "distributed</w>": 3202,
    "Rab": 3203,
    "Rabbi": 3204,
    "Rabbit": 3205,
    "RabbitMQ": 3206,
    "RabbitMQ</w>": 3207,
    "implements</w>": 3208,
    "advan": 3209,
    "advanced</w>": 3210,
    "message</w>": 3211,
    "queu": 3212,
    "queuing</w>": 3213,
    "protocol</w>": 3214,
    "Di": 3215,
    "Digital</w>": 3216,
    "transformation</w>": 3217,
    "modern": 3218,
    "moderniz": 3219,
    "modernizes</w>": 3220,
    "Interna": 3221,
    "International</w>": 3222,
    "cooper": 3223,
    "cooperation</w>": 3224,
    "global</w>": 3225,
    "gover": 3226,
    "govern": 3227,
    "governance</w>": 3228,
    "learne": 3229,
    "learned</w>": 3230,
    "Graph": 3231,
    "GraphQ": 3232,
    "GraphQL</w>": 3233,
    "fetching</w>": 3234,
    "fron": 3235,
    "frontends</w>": 3236,
    "Cost</w>": 3237,
    "spend": 3238,
    "spending</w>": 3239,
    "Point</w>": 3240,
    "care</w>": 3241,
    "diag": 3242,
    "diagno": 3243,
    "diagnostic</w>": 3244,
    "bedside</w>": 3245,
    "Hydro": 3246,
    "Hydroelec": 3247,
    "Hydroelectric</w>": 3248,
    "power</w>": 3249,
    "electricity</w>": 3250,
    "Alp": 3251,
    "Alpha": 3252,
    "AlphaGo</w>": 3253,
    "combin": 3254,
    "combined</w>": 3255,
    "Je": 3256,
    "Jez": 3257,
    "Jez</w>": 3258,
    "Hum": 3259,
    "Humble</w>": 3260,
    "advo": 3261,
    "advocated</w>": 3262,
    "Large</w>": 3263,
    "generate</w>": 3264,
    "human</w>": 3265,
    "like</w>": 3266,
    "dela": 3267,
    "delay</w>": 3268,
    "interactivity</w>": 3269,
    "Paging</w>": 3270,
    "divi": 3271,
    "divides</w>": 3272,
    "fix": 3273,
    "fixed</w>": 3274,
    "size</w>": 3275,
    "blocks</w>": 3276,
    "տեղնությունի</w>": 3277,
    "բում": 3278,
    "բումբ": 3279,
    "բումբայ": 3280,
    "բումբայն</w>": 3281,
    "եո": 3282,
    "եող": 3283,
    "եողվու": 3284,
    "եողվում": 3285,
    "եողվում</w>": 3286,
    "Cal": 3287,
    "Calcul": 3288,
    "Calculus</w>": 3289,
    "deri": 3290,
    "deriva": 3291,
    "derivatives</w>": 3292,
    "integr": 3293,
    "integral": 3294,
    "integrals</w>": 3295,
    "առղենություն</w>": 3296,
    "Interpre": 3297,
    "Interpreta": 3298,
    "Interpretable</w>": 3299,
    "GPT</w>": 3300,
    "autoregres": 3301,
    "autoregressi": 3302,
    "autoregressively</w>": 3303,
    "left</w>": 3304,
    "right</w>": 3305,
    "Bon": 3306,
    "Bonf": 3307,
    "Bonfer": 3308,
    "Bonferro": 3309,
    "Bonferroni": 3310,
    "Bonferroni</w>": 3311,
    "correction</w>": 3312,
    "adju": 3313,
    "adjusts</w>": 3314,
    "significance</w>": 3315,
    "Emotional</w>": 3316,
    "feel": 3317,
    "feelings</w>": 3318,
    "Prompt</w>": 3319,
    "Faul": 3320,
    "Fault</w>": 3321,
    "tole": 3322,
    "toler": 3323,
    "tolerance</w>": 3324,
    "contin": 3325,
    "continue</w>": 3326,
    "opera": 3327,
    "operating</w>": 3328,
    "desp": 3329,
    "despi": 3330,
    "despite</w>": 3331,
    "fai": 3332,
    "fail": 3333,
    "failures</w>": 3334,
    "Ste": 3335,
    "Stem</w>": 3336,
    "differentiate</w>": 3337,
    "specialized</w>": 3338,
    "cell</w>": 3339,
    "types</w>": 3340,
    "Metabo": 3341,
    "Metabolo": 3342,
    "Metabolomics</w>": 3343,
    "chemical</w>": 3344,
    "involving</w>": 3345,
    "metabolites</w>": 3346,
    "Bound": 3347,
    "Bounded</w>": 3348,
    "contexts</w>": 3349,
    "bounda": 3350,
    "boundaries</w>": 3351,
    "domain": 3352,
    "domains</w>": 3353,
    "ReL": 3354,
    "ReLU</w>": 3355,
    "common</w>": 3356,
    "activation</w>": 3357,
    "that</w>": 3358,
    "max</w>": 3359,
    "ze": 3360,
    "zero": 3361,
    "zero</w>": 3362,
    "արաք": 3363,
    "արաքին</w>": 3364,
    "ճվուն": 3365,
    "ճվուններ": 3366,
    "ճվուններըն</w>": 3367,
    "պատղին</w>": 3368,
    "Hyper": 3369,
    "Hyperparame": 3370,
    "Hyperparameter</w>": 3371,
    "tuning</w>": 3372,
    "optimizes</w>": 3373,
    "Fee": 3374,
    "Feed": 3375,
    "Feedb": 3376,
    "Feedback": 3377,
    "Feedback</w>": 3378,
    "loop": 3379,
    "loops</w>": 3380,
    "GPU</w>": 3381,
    "acc": 3382,
    "accele": 3383,
    "accelerates</w>": 3384,
    "paral": 3385,
    "paralle": 3386,
    "parallel</w>": 3387,
    "mathe": 3388,
    "mathematical</w>": 3389,
    "Rever": 3390,
    "Reverse</w>": 3391,
    "prox": 3392,
    "proxy</w>": 3393,
    "intermedi": 3394,
    "intermediates</w>": 3395,
    "ետ": 3396,
    "ետս": 3397,
    "ետսու": 3398,
    "ետսուղին</w>": 3399,
    "Ela": 3400,
    "Elas": 3401,
    "Elastic": 3402,
    "Elasticsearch</w>": 3403,
    "indexes</w>": 3404,
    "searches</w>": 3405,
    "Pu": 3406,
    "Public</w>": 3407,
    "transpor": 3408,
    "transportation</w>": 3409,
    "footprin": 3410,
    "footprints</w>": 3411,
    "significan": 3412,
    "significantly</w>": 3413,
    "երիցվել</w>": 3414,
    "Biode": 3415,
    "Biodegra": 3416,
    "Biodegrada": 3417,
    "Biodegradable</w>": 3418,
    "natur": 3419,
    "naturally</w>": 3420,
    "ավաստությունի</w>": 3421,
    "Bea": 3422,
    "Beam</w>": 3423,
    "high</w>": 3424,
    "probability</w>": 3425,
    "sequences</w>": 3426,
    "subset</w>": 3427,
    "arti": 3428,
    "artifici": 3429,
    "artificial</w>": 3430,
    "intelli": 3431,
    "intelligen": 3432,
    "intelligence</w>": 3433,
    "րաշ": 3434,
    "րաշան": 3435,
    "րաշանի</w>": 3436,
    "ճվունըն</w>": 3437,
    "գե": 3438,
    "գեռ": 3439,
    "գեռակ</w>": 3440,
    "AS": 3441,
    "ASP</w>": 3442,
    "Core</w>": 3443,
    "cross</w>": 3444,
    "logis": 3445,
    "logistics</w>": 3446,
    "inven": 3447,
    "inventory</w>": 3448,
    "Posi": 3449,
    "Positron</w>": 3450,
    "emis": 3451,
    "emission</w>": 3452,
    "tomo": 3453,
    "tomography</w>": 3454,
    "metabolic</w>": 3455,
    "մաշիններ": 3456,
    "մաշիններինինին</w>": 3457,
    "AR": 3458,
    "ARP</w>": 3459,
    "maps</w>": 3460,
    "IP</w>": 3461,
    "MA": 3462,
    "MAC</w>": 3463,
    "variation</w>": 3464,
    "distance</w>": 3465,
    "max": 3466,
    "maxim": 3467,
    "maximum</w>": 3468,
    "ացնին": 3469,
    "ացնինի</w>": 3470,
    "Eth": 3471,
    "Ethical</w>": 3472,
    "gui": 3473,
    "guide": 3474,
    "guidel": 3475,
    "guidelines</w>": 3476,
    "establish</w>": 3477,
    "moral</w>": 3478,
    "princ": 3479,
    "princip": 3480,
    "principles</w>": 3481,
    "ացնին</w>": 3482,
    "Enta": 3483,
    "Entang": 3484,
    "Entangle": 3485,
    "Entanglement</w>": 3486,
    "quantum</w>": 3487,
    "qubi": 3488,
    "qubits</w>": 3489,
    "Random</w>": 3490,
    "combine</w>": 3491,
    "robu": 3492,
    "robust</w>": 3493,
    "Im": 3494,
    "Immun": 3495,
    "Immunology</w>": 3496,
    "immun": 3497,
    "immune</w>": 3498,
    "structure</w>": 3499,
    "mak": 3500,
    "makes</w>": 3501,
    "fa": 3502,
    "faste": 3503,
    "faster</w>": 3504,
    "Captions</w>": 3505,
    "vide": 3506,
    "video</w>": 3507,
    "Law</w>": 3508,
    "numbers</w>": 3509,
    "sample</w>": 3510,
    "aver": 3511,
    "averages</w>": 3512,
    "conve": 3513,
    "converge</w>": 3514,
    "expec": 3515,
    "expectation</w>": 3516,
    "Tool</w>": 3517,
    "Cox</w>": 3518,
    "proportional</w>": 3519,
    "haz": 3520,
    "hazar": 3521,
    "hazards</w>": 3522,
    "covariate</w>": 3523,
    "sur": 3524,
    "survi": 3525,
    "survival</w>": 3526,
    "reality</w>": 3527,
    "blends</w>": 3528,
    "environments</w>": 3529,
    "sea": 3530,
    "seam": 3531,
    "seamle": 3532,
    "seamless": 3533,
    "seamlessly</w>": 3534,
    "Sedimen": 3535,
    "Sedimentation</w>": 3536,
    "deposi": 3537,
    "deposits</w>": 3538,
    "particles</w>": 3539,
    "creating</w>": 3540,
    "sedimen": 3541,
    "sedimentary</w>": 3542,
    "rock</w>": 3543,
    "Ak": 3544,
    "Akai": 3545,
    "Akaike</w>": 3546,
    "cri": 3547,
    "crite": 3548,
    "criteri": 3549,
    "criterion</w>": 3550,
    "balances</w>": 3551,
    "complex": 3552,
    "complexity</w>": 3553,
    "Vector</w>": 3554,
    "simi": 3555,
    "simila": 3556,
    "similar</w>": 3557,
    "dense</w>": 3558,
    "DH": 3559,
    "DHC": 3560,
    "DHCP</w>": 3561,
    "assig": 3562,
    "assigns</w>": 3563,
    "Cel": 3564,
    "Cell": 3565,
    "Cellular</w>": 3566,
    "respir": 3567,
    "respiration</w>": 3568,
    "glu": 3569,
    "gluco": 3570,
    "glucose</w>": 3571,
    "Kot": 3572,
    "Kotli": 3573,
    "Kotlin</w>": 3574,
    "modern</w>": 3575,
    "Ja": 3576,
    "Jav": 3577,
    "Java</w>": 3578,
    "vir": 3579,
    "virtual</w>": 3580,
    "Prop": 3581,
    "Propen": 3582,
    "Propensity</w>": 3583,
    "scor": 3584,
    "score</w>": 3585,
    "match": 3586,
    "matching</w>": 3587,
    "treat": 3588,
    "treatment</w>": 3589,
    "աստ": 3590,
    "աստաք": 3591,
    "աստաքի</w>": 3592,
    "մանկայ": 3593,
    "մանկայումին</w>": 3594,
    "Conju": 3595,
    "Conjug": 3596,
    "Conjugate</w>": 3597,
    "method</w>": 3598,
    "minimizes</w>": 3599,
    "quad": 3600,
    "quadra": 3601,
    "quadratic</w>": 3602,
    "մատեմատիկան</w>": 3603,
    "հավաստին</w>": 3604,
    "Sem": 3605,
    "Semi": 3606,
    "Semi</w>": 3607,
    "supervi": 3608,
    "supervised</w>": 3609,
    "unlabeled</w>": 3610,
    "Senti": 3611,
    "Sentiment</w>": 3612,
    "emotional</w>": 3613,
    "tone</w>": 3614,
    "fif": 3615,
    "fifth</w>": 3616,
    "wirele": 3617,
    "wireless</w>": 3618,
    "Pag": 3619,
    "Pagin": 3620,
    "Pagination</w>": 3621,
    "Ob": 3622,
    "Observability</w>": 3623,
    "insight</w>": 3624,
    "Sele": 3625,
    "Selection</w>": 3626,
    "sort</w>": 3627,
    "minimum</w>": 3628,
    "itera": 3629,
    "iteratively</w>": 3630,
    "Line": 3631,
    "Linear</w>": 3632,
    "fits</w>": 3633,
    "Sta": 3634,
    "Static</w>": 3635,
    "site</w>": 3636,
    "pre</w>": 3637,
    "pages</w>": 3638,
    "այրումի</w>": 3639,
    "մետույն</w>": 3640,
    "products</w>": 3641,
    "disa": 3642,
    "disabilities</w>": 3643,
    "Teach": 3644,
    "Teaching</w>": 3645,
    "soli": 3646,
    "solidi": 3647,
    "solidifies</w>": 3648,
    "expl": 3649,
    "explan": 3650,
    "explanation</w>": 3651,
    "Global</w>": 3652,
    "see": 3653,
    "seeks</w>": 3654,
    "solution</w>": 3655,
    "entire</w>": 3656,
    "space</w>": 3657,
    "Beta</w>": 3658,
    "probabilities</w>": 3659,
    "proportions</w>": 3660,
    "fle": 3661,
    "flex": 3662,
    "flexi": 3663,
    "flexib": 3664,
    "flexibly</w>": 3665,
    "Met": 3666,
    "Metcal": 3667,
    "Metcalf": 3668,
    "Metcalfe</w>": 3669,
    "law</w>": 3670,
    "coun": 3671,
    "count</w>": 3672,
    "Pre": 3673,
    "Preci": 3674,
    "Precision</w>": 3675,
    "agricul": 3676,
    "agriculture</w>": 3677,
    "optimized</w>": 3678,
    "Back": 3679,
    "Backpropag": 3680,
    "Backpropagation</w>": 3681,
    "computes</w>": 3682,
    "respec": 3683,
    "respect</w>": 3684,
    "Cat": 3685,
    "CatBo": 3686,
    "CatBoo": 3687,
    "CatBoost</w>": 3688,
    "cate": 3689,
    "categori": 3690,
    "categorical</w>": 3691,
    "feat": 3692,
    "features</w>": 3693,
    "natively</w>": 3694,
    "Ro": 3695,
    "Rotary</w>": 3696,
    "relative</w>": 3697,
    "positions</w>": 3698,
    "computa": 3699,
    "computations</w>": 3700,
    "layou": 3701,
    "layouts</w>": 3702,
    "Ze": 3703,
    "Zei": 3704,
    "Zeigar": 3705,
    "Zeigarni": 3706,
    "Zeigarnik</w>": 3707,
    "effect</w>": 3708,
    "reme": 3709,
    "remem": 3710,
    "rememb": 3711,
    "remembers</w>": 3712,
    "incomplete</w>": 3713,
    "իտ": 3714,
    "իտյու": 3715,
    "իտյուըն</w>": 3716,
    "ծուցելին</w>": 3717,
    "leve": 3718,
    "level</w>": 3719,
    "objectives</w>": 3720,
    "targets</w>": 3721,
    "Ag": 3722,
    "Agricul": 3723,
    "Agricult": 3724,
    "Agricultural</w>": 3725,
    "monito": 3726,
    "monitoring</w>": 3727,
    "dron": 3728,
    "drones</w>": 3729,
    "crop</w>": 3730,
    "Organ": 3731,
    "Organiz": 3732,
    "Organiza": 3733,
    "Organizational</w>": 3734,
    "workplac": 3735,
    "workplace</w>": 3736,
    "factory</w>": 3737,
    "pattern</w>": 3738,
    "objects</w>": 3739,
    "specif": 3740,
    "specify": 3741,
    "specifying</w>": 3742,
    "exact</w>": 3743,
    "classes</w>": 3744,
    "Sma": 3745,
    "Smart</w>": 3746,
    "cities</w>": 3747,
    "urban</w>": 3748,
    "անտեր": 3749,
    "անտերներին</w>": 3750,
    "պաշ": 3751,
    "պաշտ": 3752,
    "պաշտություն": 3753,
    "պաշտությունը": 3754,
    "պաշտությունը</w>": 3755,
    "Fres": 3756,
    "Fresh": 3757,
    "Freshwater</w>": 3758,
    "clean</w>": 3759,
    "NF": 3760,
    "NFC</w>": 3761,
    "near</w>": 3762,
    "Cog": 3763,
    "Cogni": 3764,
    "Cognitive</w>": 3765,
    "neu": 3766,
    "neuro": 3767,
    "neurosc": 3768,
    "neurosci": 3769,
    "neuroscience</w>": 3770,
    "Ev": 3771,
    "Event</w>": 3772,
    "driv": 3773,
    "driven</w>": 3774,
    "respo": 3775,
    "responds</w>": 3776,
    "state</w>": 3777,
    "asynchronously</w>": 3778,
    "Metro": 3779,
    "Metropo": 3780,
    "Metropoli": 3781,
    "Metropolis</w>": 3782,
    "Has": 3783,
    "Hastings</w>": 3784,
    "accepts</w>": 3785,
    "rejec": 3786,
    "rejects</w>": 3787,
    "propo": 3788,
    "proposed</w>": 3789,
    "samples</w>": 3790,
    "CP": 3791,
    "CPU</w>": 3792,
    "lists</w>": 3793,
    "probabili": 3794,
    "probabilistic</w>": 3795,
    "անք": 3796,
    "անքին</w>": 3797,
    "ճով</w>": 3798,
    "Ra": 3799,
    "Ray</w>": 3800,
    "simulates</w>": 3801,
    "light</w>": 3802,
    "real": 3803,
    "realis": 3804,
    "realistic</w>": 3805,
    "Tran": 3806,
    "Transcrip": 3807,
    "Transcripto": 3808,
    "Transcriptomics</w>": 3809,
    "RN": 3810,
    "RNA</w>": 3811,
    "transcrip": 3812,
    "transcripts</w>": 3813,
    "produced</w>": 3814,
    "Sa": 3815,
    "Samp": 3816,
    "Sampling</w>": 3817,
    "observability</w>": 3818,
    "over": 3819,
    "overhe": 3820,
    "overhea": 3821,
    "overhead</w>": 3822,
    "wh": 3823,
    "while</w>": 3824,
    "maintaining</w>": 3825,
    "insights</w>": 3826,
    "Few</w>": 3827,
    "shot</w>": 3828,
    "examp": 3829,
    "examples</w>": 3830,
    "prompt</w>": 3831,
    "Protocol</w>": 3832,
    "buff": 3833,
    "buffers</w>": 3834,
    "bin": 3835,
    "binary</w>": 3836,
    "serializ": 3837,
    "serialization</w>": 3838,
    "Rec": 3839,
    "Recall</w>": 3840,
    "fr": 3841,
    "fraction</w>": 3842,
    "amo": 3843,
    "among</w>": 3844,
    "actual</w>": 3845,
    "ունվ": 3846,
    "ունվամ": 3847,
    "ունվամ</w>": 3848,
    "ույն": 3849,
    "ույնում</w>": 3850,
    "ենինտերնետին</w>": 3851,
    "ծուց</w>": 3852,
    "Perl</w>": 3853,
    "admin": 3854,
    "adminis": 3855,
    "administr": 3856,
    "administration</w>": 3857,
    "Peer</w>": 3858,
    "exchanges</w>": 3859,
    "bidi": 3860,
    "bidire": 3861,
    "bidirec": 3862,
    "bidirectionally</w>": 3863,
    "Networ": 3864,
    "Network</w>": 3865,
    "Asy": 3866,
    "Asynchrono": 3867,
    "Asynchronous</w>": 3868,
    "concur": 3869,
    "concurre": 3870,
    "concurrent</w>": 3871,
    "տվությունի</w>": 3872,
    "պատղինին</w>": 3873,
    "Multino": 3874,
    "Multinomi": 3875,
    "Multinomial</w>": 3876,
    "naive</w>": 3877,
    "classifies</w>": 3878,
    "frequencies</w>": 3879,
    "Ka": 3880,
    "Kaiz": 3881,
    "Kaizen</w>": 3882,
    "promo": 3883,
    "promotes</w>": 3884,
    "incremental</w>": 3885,
    "Intern": 3886,
    "Internet</w>": 3887,
    "things</w>": 3888,
    "bud": 3889,
    "budg": 3890,
    "budgets</w>": 3891,
    "velo": 3892,
    "velocity</w>": 3893,
    "Real</w>": 3894,
    "garb": 3895,
    "garbage</w>": 3896,
    "collection</w>": 3897,
    "strict</w>": 3898,
    "timing</w>": 3899,
    "Tob": 3900,
    "Tobit</w>": 3901,
    "censo": 3902,
    "censored</w>": 3903,
    "User</w>": 3904,
    "behavior": 3905,
    "behaviors</w>": 3906,
    "Nan": 3907,
    "Nanop": 3908,
    "Nanopar": 3909,
    "Nanoparticles</w>": 3910,
    "carry</w>": 3911,
    "dru": 3912,
    "drugs</w>": 3913,
    "specific</w>": 3914,
    "Mi": 3915,
    "Micro": 3916,
    "Microservices</w>": 3917,
    "independent</w>": 3918,
    "Or": 3919,
    "Orche": 3920,
    "Orchestr": 3921,
    "Orchestration</w>": 3922,
    "sag": 3923,
    "sagas</w>": 3924,
    "coordinate</w>": 3925,
    "central</w>": 3926,
    "coordinator</w>": 3927,
    "ատեմատիկան</w>": 3928,
    "Gre": 3929,
    "Green</w>": 3930,
    "building</w>": 3931,
    "construction</w>": 3932,
    "environmental</w>": 3933,
    "impact</w>": 3934,
    "Typo": 3935,
    "Typography</w>": 3936,
    "establish": 3937,
    "establishes</w>": 3938,
    "visual</w>": 3939,
    "hier": 3940,
    "hierarch": 3941,
    "hierarchy</w>": 3942,
    "ծիրավուր": 3943,
    "ծիրավուրկ": 3944,
    "ծիրավուրկակ</w>": 3945,
    "production</w>": 3946,
    "Pea": 3947,
    "Peak</w>": 3948,
    "end</w>": 3949,
    "rule</w>": 3950,
    "shap": 3951,
    "shapes</w>": 3952,
    "high": 3953,
    "highligh": 3954,
    "highlights</w>": 3955,
    "Enc": 3956,
    "Encry": 3957,
    "Encryption</w>": 3958,
    "protects</w>": 3959,
    "unau": 3960,
    "unauth": 3961,
    "unauthori": 3962,
    "unauthoriz": 3963,
    "unauthorized</w>": 3964,
    "Ur": 3965,
    "Urban</w>": 3966,
    "designs</w>": 3967,
    "functional</w>": 3968,
    "spaces</w>": 3969,
    "Que": 3970,
    "Queu": 3971,
    "Queues</w>": 3972,
    "follow</w>": 3973,
    "fab": 3974,
    "fabri": 3975,
    "fabric</w>": 3976,
    "unified</w>": 3977,
    "Coral</w>": 3978,
    "reef": 3979,
    "reefs</w>": 3980,
    "sup": 3981,
    "support</w>": 3982,
    "diverse</w>": 3983,
    "marine</w>": 3984,
    "life</w>": 3985,
    "trop": 3986,
    "tropical</w>": 3987,
    "oce": 3988,
    "oceans</w>": 3989,
    "OL": 3990,
    "OLTP</w>": 3991,
    "handle</w>": 3992,
    "transac": 3993,
    "transactional</w>": 3994,
    "workloa": 3995,
    "workloads</w>": 3996,
    "Deci": 3997,
    "Decision</w>": 3998,
    "making</w>": 3999,
    "options</w>": 4000,
    "ground": 4001,
    "grounds</w>": 4002,
    "retriev": 4003,
    "retrieved</w>": 4004,
    "ացնինինին</w>": 4005,
    "բարած": 4006,
    "բարածությունին</w>": 4007,
    "runs</w>": 4008,
    "local</w>": 4009,
    "Expon": 4010,
    "Exponenti": 4011,
    "Exponential</w>": 4012,
    "conse": 4013,
    "consecu": 4014,
    "consecutive</w>": 4015,
    "events</w>": 4016,
    "ga": 4017,
    "gate": 4018,
    "gatewa": 4019,
    "gateway</w>": 4020,
    "traf": 4021,
    "traffic</w>": 4022,
    "Extre": 4023,
    "Extreme</w>": 4024,
    "empha": 4025,
    "emphasizes</w>": 4026,
    "sati": 4027,
    "satis": 4028,
    "satisf": 4029,
    "satisfaction</w>": 4030,
    "relea": 4031,
    "releases</w>": 4032,
    "հարաստությունի</w>": 4033,
    "պրածքի</w>": 4034,
    "ռտ": 4035,
    "ռտի": 4036,
    "ռտիզ": 4037,
    "ռտիզին": 4038,
    "ռտիզինտ</w>": 4039,
    "հիմնակու": 4040,
    "հիմնակունին</w>": 4041,
    "և</w>": 4042,
    "նոր": 4043,
    "նորումի</w>": 4044,
    "պատվումի</w>": 4045,
    "parti": 4046,
    "partitions</w>": 4047,
    "reliable</w>": 4048,
    "esti": 4049,
    "estima": 4050,
    "estimation</w>": 4051,
    "Multi</w>": 4052,
    "modal</w>": 4053,
    "modal": 4054,
    "modali": 4055,
    "modalities</w>": 4056,
    "Land": 4057,
    "Landing</w>": 4058,
    "page</w>": 4059,
    "increa": 4060,
    "increases</w>": 4061,
    "Fair": 4062,
    "Fairness</w>": 4063,
    "metrics</w>": 4064,
    "measure</w>": 4065,
    "equ": 4066,
    "equally</w>": 4067,
    "Behavi": 4068,
    "Behavior": 4069,
    "Behavioral</w>": 4070,
    "econo": 4071,
    "economics</w>": 4072,
    "econom": 4073,
    "economic</w>": 4074,
    "theor": 4075,
    "theory</w>": 4076,
    "րեբ": 4077,
    "րեբլ": 4078,
    "րեբլումի</w>": 4079,
    "ճովեր": 4080,
    "ճովերըն</w>": 4081,
    "ճովեր</w>": 4082,
    "էն</w>": 4083,
    "նտերնետի</w>": 4084,
    "առղենությու": 4085,
    "առղենությունըն</w>": 4086,
    "պատվումին</w>": 4087,
    "Ty": 4088,
    "Typ": 4089,
    "Type": 4090,
    "TypeScript</w>": 4091,
    "typed</w>": 4092,
    "superset</w>": 4093,
    "Ap": 4094,
    "Apache</w>": 4095,
    "HTTP</w>": 4096,
    "hosting</w>": 4097,
    "B</w>": 4098,
    "compa": 4099,
    "compares</w>": 4100,
    "alter": 4101,
    "alterna": 4102,
    "alternatives</w>": 4103,
    "Bro": 4104,
    "Brow": 4105,
    "Browser</w>": 4106,
    "developer</w>": 4107,
    "too": 4108,
    "tools</w>": 4109,
    "assi": 4110,
    "assist</w>": 4111,
    "Ang": 4112,
    "Angular</w>": 4113,
    "deliver": 4114,
    "delivers</w>": 4115,
    "ավուր": 4116,
    "ավուրի</w>": 4117,
    "Au": 4118,
    "Auto": 4119,
    "Autoregres": 4120,
    "Autoregressive</w>": 4121,
    "means</w>": 4122,
    "each</w>": 4123,
    "depends</w>": 4124,
    "previ": 4125,
    "previous</w>": 4126,
    "հավաստությունի</w>": 4127,
    "պրա": 4128,
    "պրաղ": 4129,
    "պրաղման</w>": 4130,
    "Gr": 4131,
    "Grang": 4132,
    "Granger</w>": 4133,
    "caus": 4134,
    "causality</w>": 4135,
    "series</w>": 4136,
    "predicts</w>": 4137,
    "another</w>": 4138,
    "ռջըն</w>": 4139,
    "արու": 4140,
    "արուտ</w>": 4141,
    "RE": 4142,
    "RES": 4143,
    "REST</w>": 4144,
    "standard</w>": 4145,
    "service</w>": 4146,
    "interfac": 4147,
    "interfaces</w>": 4148,
    "հավաստությունին</w>": 4149,
    "Sustain": 4150,
    "Sustainable</w>": 4151,
    "present</w>": 4152,
    "compro": 4153,
    "compromis": 4154,
    "compromising</w>": 4155,
    "under</w>": 4156,
    "իմասություն": 4157,
    "իմասությունինին</w>": 4158,
    "used</w>": 4159,
    "KM": 4160,
    "KMP</w>": 4161,
    "Configuration</w>": 4162,
    "maintains</w>": 4163,
    "consistent</w>": 4164,
    "Qu": 4165,
    "Quantum</w>": 4166,
    "gates</w>": 4167,
    "manip": 4168,
    "manipul": 4169,
    "manipulate</w>": 4170,
    "qub": 4171,
    "qubit</w>": 4172,
    "Tw": 4173,
    "Twel": 4174,
    "Twelve</w>": 4175,
    "schema": 4176,
    "schemas</w>": 4177,
    "migra": 4178,
    "migrations</w>": 4179,
    "AW": 4180,
    "AWS": 4181,
    "AWS</w>": 4182,
    "Ama": 4183,
    "Amaz": 4184,
    "Amazon</w>": 4185,
    "Reprodu": 4186,
    "Reproduci": 4187,
    "Reproducibility</w>": 4188,
    "can</w>": 4189,
    "veri": 4190,
    "verified</w>": 4191,
    "Continu": 4192,
    "Continual</w>": 4193,
    "learn</w>": 4194,
    "sequenti": 4195,
    "sequentially</w>": 4196,
    "Projec": 4197,
    "Project</w>": 4198,
    "execu": 4199,
    "executes</w>": 4200,
    "organiz": 4201,
    "organized</w>": 4202,
    "ini": 4203,
    "initi": 4204,
    "initia": 4205,
    "initiatives</w>": 4206,
    "Prote": 4207,
    "Protein": 4208,
    "Proteins</w>": 4209,
    "fold</w>": 4210,
    "three</w>": 4211,
    "dimension": 4212,
    "dimensional</w>": 4213,
    "struct": 4214,
    "structures</w>": 4215,
    "determining</w>": 4216,
    "Ho": 4217,
    "Homo": 4218,
    "Homomor": 4219,
    "Homomorph": 4220,
    "Homomorphic</w>": 4221,
    "encryption</w>": 4222,
    "Information</w>": 4223,
    "queries</w>": 4224,
    "Search": 4225,
    "Search</w>": 4226,
    "helps</w>": 4227,
    "find": 4228,
    "find</w>": 4229,
    "Em": 4230,
    "Embeddings</w>": 4231,
    "convert</w>": 4232,
    "discre": 4233,
    "discrete</w>": 4234,
    "vector</w>": 4235,
    "Mess": 4236,
    "Message</w>": 4237,
    "mid": 4238,
    "midd": 4239,
    "middle": 4240,
    "middleware</w>": 4241,
    "asynchronous</w>": 4242,
    "Fede": 4243,
    "Federa": 4244,
    "Federated</w>": 4245,
    "trains</w>": 4246,
    "centraliz": 4247,
    "centralizing</w>": 4248,
    "raw</w>": 4249,
    "generated</w>": 4250,
    "programs</w>": 4251,
    "Br": 4252,
    "Bran": 4253,
    "Branch": 4254,
    "Branch</w>": 4255,
    "prediction</w>": 4256,
    "gues": 4257,
    "guesses</w>": 4258,
    "Pros": 4259,
    "Prosthe": 4260,
    "Prosthetics</w>": 4261,
    "rest": 4262,
    "restore</w>": 4263,
    "lost</w>": 4264,
    "lim": 4265,
    "limb</w>": 4266,
    "Lo": 4267,
    "Lock</w>": 4268,
    "bind": 4269,
    "bind</w>": 4270,
    "ecosystems</w>": 4271,
    "Col": 4272,
    "Colla": 4273,
    "Collab": 4274,
    "Collabor": 4275,
    "Collabora": 4276,
    "Collaborative</w>": 4277,
    "saf": 4278,
    "safel": 4279,
    "safely</w>": 4280,
    "alon": 4281,
    "along": 4282,
    "alongside</w>": 4283,
    "humans</w>": 4284,
    "Multivariate</w>": 4285,
    "BA": 4286,
    "BASE": 4287,
    "BASE</w>": 4288,
    "describe</w>": 4289,
    "even": 4290,
    "eventual</w>": 4291,
    "consisten": 4292,
    "consistenc": 4293,
    "consistency</w>": 4294,
    "trade</w>": 4295,
    "offs</w>": 4296,
    "Dis": 4297,
    "Distri": 4298,
    "Distribu": 4299,
    "Distributed</w>": 4300,
    "Larg": 4301,
    "Large": 4302,
    "Largest</w>": 4303,
    "loading</w>": 4304,
    "entro": 4305,
    "entropy</w>": 4306,
    "predicted</w>": 4307,
    "distrib": 4308,
    "distributi": 4309,
    "distribution": 4310,
    "distributions</w>": 4311,
    "Sp": 4312,
    "Speci": 4313,
    "Specifi": 4314,
    "Specification</w>": 4315,
    "bef": 4316,
    "before</w>": 4317,
    "implemen": 4318,
    "implementation</w>": 4319,
    "optimizer</w>": 4320,
    "upda": 4321,
    "updates</w>": 4322,
    "computed</w>": 4323,
    "adver": 4324,
    "adversa": 4325,
    "adversari": 4326,
    "adversarial</w>": 4327,
    "resistance</w>": 4328,
    "atta": 4329,
    "attac": 4330,
    "attacks</w>": 4331,
    "transla": 4332,
    "translation</w>": 4333,
    "languages</w>": 4334,
    "Gene": 4335,
    "Genetic</w>": 4336,
    "drift</w>": 4337,
    "causes</w>": 4338,
    "random</w>": 4339,
    "gene</w>": 4340,
    "frequency</w>": 4341,
    "Mat": 4342,
    "Matri": 4343,
    "Matrix</w>": 4344,
    "decomposition</w>": 4345,
    "factor": 4346,
    "factors</w>": 4347,
    "matri": 4348,
    "matrices</w>": 4349,
    "simpler</w>": 4350,
    "Bare</w>": 4351,
    "metal</w>": 4352,
    "dedi": 4353,
    "dedicated</w>": 4354,
    "աշինային</w>": 4355,
    "մուս": 4356,
    "մուսուվ": 4357,
    "մուսուված</w>": 4358,
    "Eco": 4359,
    "Ecology</w>": 4360,
    "Mem": 4361,
    "Memri": 4362,
    "Memristor": 4363,
    "Memristors</w>": 4364,
    "process</w>": 4365,
    "Resi": 4366,
    "Residual</w>": 4367,
    "train</w>": 4368,
    "very</w>": 4369,
    "adding</w>": 4370,
    "skip</w>": 4371,
    "Copy": 4372,
    "Copyri": 4373,
    "Copyrigh": 4374,
    "Copyrights</w>": 4375,
    "prote": 4376,
    "protect</w>": 4377,
    "orig": 4378,
    "origin": 4379,
    "original</w>": 4380,
    "creative</w>": 4381,
    "expres": 4382,
    "expressions</w>": 4383
  },
  "merges": [
    [
      "\"",
      "</w>"
    ],
    [
      ":",
      "</w>"
    ],
    [
      ",",
      "</w>"
    ],
    [
      "e",
      "</w>"
    ],
    [
      "s",
      "</w>"
    ],
    [
      "n",
      "</w>"
    ],
    [
      "t",
      "e"
    ],
    [
      "t",
      "</w>"
    ],
    [
      "r",
      "</w>"
    ],
    [
      ".",
      "</w>"
    ],
    [
      "o",
      "n</w>"
    ],
    [
      "n",
      "d"
    ],
    [
      "t",
      "i"
    ],
    [
      "r",
      "e"
    ],
    [
      "[",
      "</w>"
    ],
    [
      "]",
      "</w>"
    ],
    [
      "y",
      "</w>"
    ],
    [
      "c",
      "o"
    ],
    [
      "r",
      "i"
    ],
    [
      "l",
      "e"
    ],
    [
      "ti",
      "on</w>"
    ],
    [
      "m",
      "a"
    ],
    [
      "e",
      "r</w>"
    ],
    [
      "f",
      "i"
    ],
    [
      "co",
      "m"
    ],
    [
      "p",
      "y</w>"
    ],
    [
      "{",
      "</w>"
    ],
    [
      "}",
      "</w>"
    ],
    [
      "a",
      "l"
    ],
    [
      "t",
      "a"
    ],
    [
      "s",
      "te"
    ],
    [
      "com",
      "ma"
    ],
    [
      "comma",
      "nd"
    ],
    [
      "ste",
      "p"
    ],
    [
      "a",
      "c"
    ],
    [
      "le",
      "s</w>"
    ],
    [
      "u",
      "m"
    ],
    [
      "fi",
      "les</w>"
    ],
    [
      "d",
      "e"
    ],
    [
      "t",
      "e</w>"
    ],
    [
      "i",
      "n"
    ],
    [
      "command",
      "</w>"
    ],
    [
      "r",
      "g"
    ],
    [
      "'",
      "</w>"
    ],
    [
      "g",
      "</w>"
    ],
    [
      "p",
      "e</w>"
    ],
    [
      "t",
      "h"
    ],
    [
      "e",
      "t</w>"
    ],
    [
      "t",
      "y"
    ],
    [
      "ty",
      "pe</w>"
    ],
    [
      "f",
      "</w>"
    ],
    [
      "ն",
      "</w>"
    ],
    [
      "ac",
      "tion</w>"
    ],
    [
      "ta",
      "rg"
    ],
    [
      "step",
      "</w>"
    ],
    [
      "n",
      "um"
    ],
    [
      "targ",
      "et</w>"
    ],
    [
      "num",
      "b"
    ],
    [
      "numb",
      "er</w>"
    ],
    [
      "d",
      "</w>"
    ],
    [
      "r",
      "o"
    ],
    [
      "s",
      "e"
    ],
    [
      "u",
      "l"
    ],
    [
      "te",
      "r</w>"
    ],
    [
      "(",
      "</w>"
    ],
    [
      ")",
      "</w>"
    ],
    [
      "v",
      "al"
    ],
    [
      "w",
      "ri"
    ],
    [
      "wri",
      "te</w>"
    ],
    [
      "o",
      "r</w>"
    ],
    [
      "t",
      "s</w>"
    ],
    [
      "l",
      "i"
    ],
    [
      "p",
      "y"
    ],
    [
      "d",
      "a"
    ],
    [
      "-",
      "</w>"
    ],
    [
      "p",
      "o"
    ],
    [
      "1",
      "</w>"
    ],
    [
      "m",
      "</w>"
    ],
    [
      "s",
      "c"
    ],
    [
      "ի",
      "ն</w>"
    ],
    [
      "a",
      "p"
    ],
    [
      "s",
      "t</w>"
    ],
    [
      "s",
      "p"
    ],
    [
      "a",
      "n"
    ],
    [
      "p",
      "ro"
    ],
    [
      "e",
      "n"
    ],
    [
      "t",
      "ter</w>"
    ],
    [
      "m",
      "s</w>"
    ],
    [
      "2",
      "</w>"
    ],
    [
      "s",
      "e</w>"
    ],
    [
      "/",
      "</w>"
    ],
    [
      "u",
      "r"
    ],
    [
      "sp",
      "li"
    ],
    [
      "m",
      "o"
    ],
    [
      "te",
      "st</w>"
    ],
    [
      "spli",
      "tter</w>"
    ],
    [
      "py",
      "th"
    ],
    [
      "pyth",
      "on</w>"
    ],
    [
      "se",
      "l"
    ],
    [
      "sel",
      "f</w>"
    ],
    [
      "u",
      "i"
    ],
    [
      "re",
      "t"
    ],
    [
      "e",
      "r"
    ],
    [
      "ո",
      "ւ"
    ],
    [
      "re",
      "s"
    ],
    [
      "ri",
      "p"
    ],
    [
      "i",
      "te"
    ],
    [
      "de",
      "sc"
    ],
    [
      "desc",
      "rip"
    ],
    [
      "descrip",
      "tion</w>"
    ],
    [
      "step",
      "s</w>"
    ],
    [
      "a",
      "r"
    ],
    [
      "in",
      "g</w>"
    ],
    [
      "ite",
      "ms</w>"
    ],
    [
      "է",
      "</w>"
    ],
    [
      "i",
      "da"
    ],
    [
      "u",
      "nd"
    ],
    [
      "c",
      "h"
    ],
    [
      "de",
      "f</w>"
    ],
    [
      "j",
      "s"
    ],
    [
      "js",
      "on</w>"
    ],
    [
      "val",
      "ida"
    ],
    [
      "v",
      "e</w>"
    ],
    [
      "ul",
      "e</w>"
    ],
    [
      "d",
      "ule</w>"
    ],
    [
      "o",
      "</w>"
    ],
    [
      "s",
      "ta"
    ],
    [
      "g",
      "e</w>"
    ],
    [
      "al",
      "se</w>"
    ],
    [
      "f",
      "alse</w>"
    ],
    [
      "re",
      "q"
    ],
    [
      "s",
      "k"
    ],
    [
      "e",
      "s</w>"
    ],
    [
      "co",
      "n"
    ],
    [
      "i",
      "n</w>"
    ],
    [
      "e",
      "c"
    ],
    [
      "mo",
      "dule</w>"
    ],
    [
      "3",
      "</w>"
    ],
    [
      "s",
      "i"
    ],
    [
      "ret",
      "ur"
    ],
    [
      "retur",
      "n</w>"
    ],
    [
      "res",
      "ul"
    ],
    [
      "x",
      "</w>"
    ],
    [
      "sta",
      "nd"
    ],
    [
      "req",
      "ui"
    ],
    [
      "ri",
      "sk"
    ],
    [
      "ի",
      "ն"
    ],
    [
      "e",
      "nd"
    ],
    [
      "a",
      "t"
    ],
    [
      "o",
      "p"
    ],
    [
      "l",
      "</w>"
    ],
    [
      "l",
      "e</w>"
    ],
    [
      "re",
      "s</w>"
    ],
    [
      "o",
      "b"
    ],
    [
      "val",
      "</w>"
    ],
    [
      "=",
      "</w>"
    ],
    [
      "ti",
      "ve</w>"
    ],
    [
      "resul",
      "t</w>"
    ],
    [
      "j",
      "ec"
    ],
    [
      "re",
      "le"
    ],
    [
      "v",
      "an"
    ],
    [
      "ob",
      "jec"
    ],
    [
      "rele",
      "van"
    ],
    [
      "relevan",
      "t</w>"
    ],
    [
      "und",
      "er"
    ],
    [
      "under",
      "stand"
    ],
    [
      "understand",
      "ing</w>"
    ],
    [
      "valida",
      "tion</w>"
    ],
    [
      "requi",
      "res</w>"
    ],
    [
      "ap",
      "pro"
    ],
    [
      "appro",
      "val</w>"
    ],
    [
      "objec",
      "tive</w>"
    ],
    [
      "risk",
      "s</w>"
    ],
    [
      "command",
      "s</w>"
    ],
    [
      "ե",
      "ր"
    ],
    [
      "r",
      "t</w>"
    ],
    [
      "op",
      "ts</w>"
    ],
    [
      "m",
      "e"
    ],
    [
      "f",
      "or</w>"
    ],
    [
      "0",
      "</w>"
    ],
    [
      "l",
      "a"
    ],
    [
      "l",
      "o"
    ],
    [
      "i",
      "t</w>"
    ],
    [
      "n",
      "e"
    ],
    [
      "th",
      "e</w>"
    ],
    [
      "po",
      "rt</w>"
    ],
    [
      "com",
      "p"
    ],
    [
      "մ",
      "ի"
    ],
    [
      "i",
      "m"
    ],
    [
      "d",
      "er</w>"
    ],
    [
      "e",
      "x"
    ],
    [
      "i",
      "s"
    ],
    [
      "im",
      "port</w>"
    ],
    [
      "ma",
      "y</w>"
    ],
    [
      "si",
      "on</w>"
    ],
    [
      "u",
      "t</w>"
    ],
    [
      "ե",
      "լ"
    ],
    [
      "h",
      "a"
    ],
    [
      "en",
      "a"
    ],
    [
      "n",
      "g</w>"
    ],
    [
      "o",
      "l</w>"
    ],
    [
      "a",
      "</w>"
    ],
    [
      "ին",
      "ին</w>"
    ],
    [
      "ա",
      "յ"
    ],
    [
      "v",
      "i"
    ],
    [
      ";",
      "</w>"
    ],
    [
      "a",
      "ge</w>"
    ],
    [
      "p",
      "s</w>"
    ],
    [
      "con",
      "fi"
    ],
    [
      "*",
      "</w>"
    ],
    [
      "py",
      "test</w>"
    ],
    [
      "4",
      "</w>"
    ],
    [
      "d",
      "um"
    ],
    [
      "dum",
      "ps</w>"
    ],
    [
      "ac",
      "k"
    ],
    [
      "o",
      "r"
    ],
    [
      "a",
      "nd"
    ],
    [
      "in",
      "it</w>"
    ],
    [
      "t",
      "r"
    ],
    [
      "տ",
      "</w>"
    ],
    [
      "u",
      "n"
    ],
    [
      "p",
      "ar"
    ],
    [
      "t",
      "o</w>"
    ],
    [
      "s",
      "sion</w>"
    ],
    [
      "and",
      "</w>"
    ],
    [
      "ի",
      "ց"
    ],
    [
      "ից",
      "վ"
    ],
    [
      "c",
      "</w>"
    ],
    [
      "se",
      "ssion</w>"
    ],
    [
      "t",
      "or</w>"
    ],
    [
      "u",
      "e</w>"
    ],
    [
      "h",
      "e</w>"
    ],
    [
      "b",
      "e"
    ],
    [
      "s",
      "ts</w>"
    ],
    [
      "ta",
      "</w>"
    ],
    [
      "5",
      "</w>"
    ],
    [
      "9",
      "</w>"
    ],
    [
      "8",
      "</w>"
    ],
    [
      "at",
      "ch"
    ],
    [
      "ա",
      "կ"
    ],
    [
      "6",
      "</w>"
    ],
    [
      "7",
      "</w>"
    ],
    [
      "u",
      "n</w>"
    ],
    [
      "d",
      "d</w>"
    ],
    [
      "p",
      "end"
    ],
    [
      "R",
      "un</w>"
    ],
    [
      "a",
      "te</w>"
    ],
    [
      "ա",
      "մ"
    ],
    [
      "d",
      "u"
    ],
    [
      "i",
      "le</w>"
    ],
    [
      "p",
      "ack"
    ],
    [
      "pack",
      "age</w>"
    ],
    [
      "p",
      "k"
    ],
    [
      "pk",
      "g</w>"
    ],
    [
      "comp",
      "ile</w>"
    ],
    [
      "t",
      "y</w>"
    ],
    [
      "o",
      "ut</w>"
    ],
    [
      "ena",
      "b"
    ],
    [
      "ret",
      "ri"
    ],
    [
      "le",
      "d</w>"
    ],
    [
      "ap",
      "i"
    ],
    [
      "ti",
      "me"
    ],
    [
      "time",
      "out</w>"
    ],
    [
      "t",
      "o"
    ],
    [
      "enab",
      "led</w>"
    ],
    [
      "end",
      "po"
    ],
    [
      "endpo",
      "in"
    ],
    [
      "endpoin",
      "ts</w>"
    ],
    [
      "api",
      "</w>"
    ],
    [
      "ne",
      "ste"
    ],
    [
      "neste",
      "d</w>"
    ],
    [
      "retri",
      "es</w>"
    ],
    [
      "po",
      "ol</w>"
    ],
    [
      "s",
      "s</w>"
    ],
    [
      "ti",
      "ng</w>"
    ],
    [
      "եր",
      "իցվ"
    ],
    [
      "երիցվ",
      "ել"
    ],
    [
      "ա",
      "ս"
    ],
    [
      "w",
      "</w>"
    ],
    [
      "e",
      "l"
    ],
    [
      "fi",
      "l"
    ],
    [
      "ա",
      "վ"
    ],
    [
      "fil",
      "ter</w>"
    ],
    [
      "re",
      "ate</w>"
    ],
    [
      "i",
      "s</w>"
    ],
    [
      "ch",
      "an"
    ],
    [
      "մ",
      "ե"
    ],
    [
      "c",
      "la"
    ],
    [
      "C",
      "reate</w>"
    ],
    [
      "A",
      "</w>"
    ],
    [
      "n",
      "o</w>"
    ],
    [
      "ex",
      "is"
    ],
    [
      "exis",
      "ting</w>"
    ],
    [
      "A",
      "dd</w>"
    ],
    [
      "i",
      "p"
    ],
    [
      "chan",
      "ge</w>"
    ],
    [
      "b",
      "e</w>"
    ],
    [
      "f",
      "e"
    ],
    [
      "al",
      "</w>"
    ],
    [
      "b",
      "atch"
    ],
    [
      "batch",
      "</w>"
    ],
    [
      "յ",
      "ու"
    ],
    [
      "o",
      "n"
    ],
    [
      "n",
      "o"
    ],
    [
      "տ",
      "եր"
    ],
    [
      "c",
      "tion</w>"
    ],
    [
      "e",
      "m"
    ],
    [
      "lo",
      "a"
    ],
    [
      "da",
      "ta</w>"
    ],
    [
      "te",
      "x"
    ],
    [
      "co",
      "r"
    ],
    [
      "tex",
      "t</w>"
    ],
    [
      "co",
      "der</w>"
    ],
    [
      "b",
      "o"
    ],
    [
      "f",
      "ro"
    ],
    [
      "un",
      "ction</w>"
    ],
    [
      "fro",
      "m</w>"
    ],
    [
      "par",
      "a"
    ],
    [
      "ha",
      "vi"
    ],
    [
      "c",
      "e</w>"
    ],
    [
      "m",
      "e</w>"
    ],
    [
      "be",
      "havi"
    ],
    [
      "behavi",
      "or</w>"
    ],
    [
      "ավ",
      "աս"
    ],
    [
      "ar",
      "y</w>"
    ],
    [
      "հ",
      "ավաս"
    ],
    [
      "ա",
      "ծ"
    ],
    [
      "c",
      "t</w>"
    ],
    [
      "val",
      "ue</w>"
    ],
    [
      "T",
      "he</w>"
    ],
    [
      "e",
      "sts</w>"
    ],
    [
      "para",
      "ms</w>"
    ],
    [
      "bo",
      "und"
    ],
    [
      "d",
      "o"
    ],
    [
      "+",
      "</w>"
    ],
    [
      "c",
      "al"
    ],
    [
      "bound",
      "ary</w>"
    ],
    [
      "ա",
      "ր"
    ],
    [
      "no",
      "t</w>"
    ],
    [
      "ի",
      "մ"
    ],
    [
      "ա",
      "ն</w>"
    ],
    [
      "cla",
      "ss</w>"
    ],
    [
      "ap",
      "pend"
    ],
    [
      "append",
      "</w>"
    ],
    [
      "le",
      "n</w>"
    ],
    [
      "s",
      "h"
    ],
    [
      "en",
      "t</w>"
    ],
    [
      "s",
      "ui"
    ],
    [
      "sui",
      "te</w>"
    ],
    [
      "T",
      "ests</w>"
    ],
    [
      "p",
      "</w>"
    ],
    [
      "l",
      "s</w>"
    ],
    [
      "in",
      "e</w>"
    ],
    [
      "R",
      "e"
    ],
    [
      "ն",
      "ին</w>"
    ],
    [
      "p",
      "er</w>"
    ],
    [
      "k",
      "e"
    ],
    [
      "ած",
      "</w>"
    ],
    [
      "լ",
      "այ"
    ],
    [
      "վ",
      "ու"
    ],
    [
      "մե",
      "տ</w>"
    ],
    [
      "nd",
      "e"
    ],
    [
      "լայ",
      "ն</w>"
    ],
    [
      "i",
      "z"
    ],
    [
      "rg",
      "er</w>"
    ],
    [
      "fi",
      "le</w>"
    ],
    [
      "a",
      "tion</w>"
    ],
    [
      "ր",
      "</w>"
    ],
    [
      "or",
      "ma"
    ],
    [
      "a",
      "n</w>"
    ],
    [
      "թ",
      "յու"
    ],
    [
      "t",
      "ri"
    ],
    [
      "թ",
      "ամ"
    ],
    [
      "u",
      "ti"
    ],
    [
      "l",
      "y</w>"
    ],
    [
      "w",
      "s</w>"
    ],
    [
      "ու",
      "թյու"
    ],
    [
      "s",
      "er</w>"
    ],
    [
      "da",
      "p"
    ],
    [
      "a",
      "s"
    ],
    [
      "մի",
      "վու"
    ],
    [
      "իմ",
      "ն"
    ],
    [
      "dap",
      "ter</w>"
    ],
    [
      "ro",
      "ws</w>"
    ],
    [
      "d",
      "i"
    ],
    [
      "միվու",
      "ր</w>"
    ],
    [
      "հ",
      "իմն"
    ],
    [
      "մի",
      "շ"
    ],
    [
      "միշ",
      "ակ"
    ],
    [
      "ac",
      "he</w>"
    ],
    [
      "c",
      "ache</w>"
    ],
    [
      "ur",
      "e</w>"
    ],
    [
      "iz",
      "er</w>"
    ],
    [
      "pro",
      "vi"
    ],
    [
      "tr",
      "ue</w>"
    ],
    [
      "te",
      "d</w>"
    ],
    [
      "n",
      "t</w>"
    ],
    [
      "a",
      "dapter</w>"
    ],
    [
      "g",
      "u"
    ],
    [
      "c",
      "a"
    ],
    [
      "թամ",
      "ին</w>"
    ],
    [
      "երիցվել",
      "ինին</w>"
    ],
    [
      "ու",
      "ն</w>"
    ],
    [
      "մ",
      "ա"
    ],
    [
      "ին",
      "տեր"
    ],
    [
      "p",
      "ut</w>"
    ],
    [
      "f",
      "unction</w>"
    ],
    [
      "le",
      "r</w>"
    ],
    [
      "a",
      "g"
    ],
    [
      "p",
      "ri"
    ],
    [
      "e",
      "p</w>"
    ],
    [
      "մ",
      "ամ"
    ],
    [
      "մամ",
      "ուն</w>"
    ],
    [
      "in",
      "put</w>"
    ],
    [
      "s",
      "um"
    ],
    [
      "re",
      "g"
    ],
    [
      "te",
      "sts</w>"
    ],
    [
      "f",
      "ac"
    ],
    [
      "երիցվել",
      "ին</w>"
    ],
    [
      "1",
      "0"
    ],
    [
      "1",
      "2"
    ],
    [
      "ar",
      "d</w>"
    ],
    [
      "em",
      "p"
    ],
    [
      "i",
      "x"
    ],
    [
      "confi",
      "g</w>"
    ],
    [
      "h",
      "e"
    ],
    [
      "1",
      "5"
    ],
    [
      "on",
      "e</w>"
    ],
    [
      "ke",
      "ep</w>"
    ],
    [
      "gu",
      "ard</w>"
    ],
    [
      "emp",
      "ty</w>"
    ],
    [
      "ությու",
      "նին</w>"
    ],
    [
      "ip",
      "el"
    ],
    [
      "ipel",
      "ine</w>"
    ],
    [
      "1",
      "7"
    ],
    [
      "1",
      "9"
    ],
    [
      "k",
      "e</w>"
    ],
    [
      "cor",
      "re"
    ],
    [
      "fac",
      "tor</w>"
    ],
    [
      "at",
      "ure</w>"
    ],
    [
      "բ",
      "ար"
    ],
    [
      "c",
      "ul"
    ],
    [
      "1",
      "4"
    ],
    [
      "p",
      "da"
    ],
    [
      "Re",
      "factor</w>"
    ],
    [
      "g",
      "ur"
    ],
    [
      "gur",
      "ation</w>"
    ],
    [
      "do",
      "c"
    ],
    [
      "sc",
      "he"
    ],
    [
      "1",
      "3"
    ],
    [
      "U",
      "pda"
    ],
    [
      "Upda",
      "te</w>"
    ],
    [
      "ha",
      "s</w>"
    ],
    [
      "con",
      "c"
    ],
    [
      "confi",
      "guration</w>"
    ],
    [
      "fe",
      "ature</w>"
    ],
    [
      "de",
      "pend"
    ],
    [
      "at",
      "or</w>"
    ],
    [
      "conc",
      "er"
    ],
    [
      "p",
      "ipeline</w>"
    ],
    [
      "cal",
      "cul"
    ],
    [
      "calcul",
      "ator</w>"
    ],
    [
      "1",
      "8"
    ],
    [
      "to",
      "ol</w>"
    ],
    [
      "R",
      "ena"
    ],
    [
      "Rena",
      "me</w>"
    ],
    [
      "f",
      "orma"
    ],
    [
      "ro",
      "u"
    ],
    [
      "ri",
      "al"
    ],
    [
      "se",
      "r"
    ],
    [
      "sh",
      "ip"
    ],
    [
      "1",
      "6"
    ],
    [
      "se",
      "rial"
    ],
    [
      "serial",
      "izer</w>"
    ],
    [
      "be",
      "ta</w>"
    ],
    [
      "ship",
      "per</w>"
    ],
    [
      "i",
      "nd"
    ],
    [
      "valida",
      "tor</w>"
    ],
    [
      "provi",
      "der</w>"
    ],
    [
      "tr",
      "y</w>"
    ],
    [
      "pro",
      "be</w>"
    ],
    [
      "comp",
      "res"
    ],
    [
      "compres",
      "s"
    ],
    [
      "compress",
      "or</w>"
    ],
    [
      "me",
      "rger</w>"
    ],
    [
      "n",
      "i"
    ],
    [
      "re",
      "nde"
    ],
    [
      "loa",
      "d</w>"
    ],
    [
      "z",
      "e</w>"
    ],
    [
      "ind",
      "ex"
    ],
    [
      "index",
      "er</w>"
    ],
    [
      "rende",
      "re"
    ],
    [
      "rendere",
      "r</w>"
    ],
    [
      "sche",
      "du"
    ],
    [
      "schedu",
      "ler</w>"
    ],
    [
      "an",
      "n"
    ],
    [
      "r",
      "a"
    ],
    [
      "en",
      "coder</w>"
    ],
    [
      "հիմն",
      "ան</w>"
    ],
    [
      "par",
      "ser</w>"
    ],
    [
      "rou",
      "ter</w>"
    ],
    [
      "t",
      "ch"
    ],
    [
      "de",
      "coder</w>"
    ],
    [
      "forma",
      "tter</w>"
    ],
    [
      "mo",
      "ni"
    ],
    [
      "h",
      "al"
    ],
    [
      "hal",
      "o</w>"
    ],
    [
      "sc",
      "ann"
    ],
    [
      "scann",
      "er</w>"
    ],
    [
      "մի",
      "ս"
    ],
    [
      "fe",
      "tch"
    ],
    [
      "v",
      "er"
    ],
    [
      "moni",
      "tor</w>"
    ],
    [
      "այ",
      "ինին</w>"
    ],
    [
      "loa",
      "der</w>"
    ],
    [
      "ս",
      "</w>"
    ],
    [
      "բար",
      "ած</w>"
    ],
    [
      "fetch",
      "er</w>"
    ],
    [
      "c",
      "i"
    ],
    [
      "uti",
      "ls</w>"
    ],
    [
      "di",
      "sp"
    ],
    [
      "disp",
      "atch"
    ],
    [
      "dispatch",
      "er</w>"
    ],
    [
      "th",
      "</w>"
    ],
    [
      "w",
      "i"
    ],
    [
      "c",
      "es</w>"
    ],
    [
      "ն",
      "ե"
    ],
    [
      "հավաս",
      "տ</w>"
    ],
    [
      "s",
      "y"
    ],
    [
      "ե",
      "ղ"
    ],
    [
      "եղ",
      "ն"
    ],
    [
      "ինտեր",
      "նե"
    ],
    [
      "1",
      "1"
    ],
    [
      "in",
      "te"
    ],
    [
      "k",
      "</w>"
    ],
    [
      "միշակ",
      "</w>"
    ],
    [
      "wi",
      "th</w>"
    ],
    [
      "b",
      "u"
    ],
    [
      "li",
      "ty</w>"
    ],
    [
      "lo",
      "g"
    ],
    [
      "եղն",
      "ությունին</w>"
    ],
    [
      "p",
      "re"
    ],
    [
      "ti",
      "n"
    ],
    [
      "մե",
      "տ"
    ],
    [
      "si",
      "g"
    ],
    [
      "մետ",
      "իցվ"
    ],
    [
      "մետիցվ",
      "ած</w>"
    ],
    [
      "u",
      "e"
    ],
    [
      "cor",
      "d</w>"
    ],
    [
      "tri",
      "c</w>"
    ],
    [
      "s",
      "u"
    ],
    [
      "m",
      "in"
    ],
    [
      "b",
      "le</w>"
    ],
    [
      "th",
      "e"
    ],
    [
      "m",
      "p"
    ],
    [
      "n",
      "ce</w>"
    ],
    [
      "ի",
      "</w>"
    ],
    [
      "մա",
      "շ"
    ],
    [
      "M",
      "o"
    ],
    [
      "ինտերնե",
      "տ"
    ],
    [
      "ո",
      "ր"
    ],
    [
      "n",
      "a"
    ],
    [
      "po",
      "n"
    ],
    [
      "c",
      "t"
    ],
    [
      "b",
      "a"
    ],
    [
      "r",
      "y</w>"
    ],
    [
      "ma",
      "in</w>"
    ],
    [
      "ue",
      "st</w>"
    ],
    [
      "d",
      "ge</w>"
    ],
    [
      "ap",
      "p"
    ],
    [
      "du",
      "ces</w>"
    ],
    [
      "n",
      "s</w>"
    ],
    [
      "e",
      "le"
    ],
    [
      "m",
      "ing</w>"
    ],
    [
      "հավաս",
      "տեր"
    ],
    [
      "ել",
      "ինին</w>"
    ],
    [
      "մ",
      "որ"
    ],
    [
      "մոր",
      "ք"
    ],
    [
      "ne",
      "e"
    ],
    [
      "en",
      "try</w>"
    ],
    [
      "t",
      "ly</w>"
    ],
    [
      "ac",
      "t</w>"
    ],
    [
      "ti",
      "me</w>"
    ],
    [
      "ta",
      "tion</w>"
    ],
    [
      "a",
      "y"
    ],
    [
      "h",
      "el"
    ],
    [
      "re",
      "e</w>"
    ],
    [
      "reg",
      "res"
    ],
    [
      "f",
      "f"
    ],
    [
      "lo",
      "w</w>"
    ],
    [
      "pri",
      "nt</w>"
    ],
    [
      "ne",
      "w</w>"
    ],
    [
      "c",
      "k</w>"
    ],
    [
      "re",
      "n"
    ],
    [
      "ack",
      "s</w>"
    ],
    [
      "co",
      "ver"
    ],
    [
      "as",
      "sum"
    ],
    [
      "i",
      "c</w>"
    ],
    [
      "po",
      "se</w>"
    ],
    [
      "th",
      "er</w>"
    ],
    [
      "re",
      "la"
    ],
    [
      "E",
      "x"
    ],
    [
      "f",
      "ul"
    ],
    [
      "ful",
      "</w>"
    ],
    [
      "t",
      "ro"
    ],
    [
      "r",
      "s</w>"
    ],
    [
      "միշակ",
      "ն"
    ],
    [
      "միշակն",
      "ելինին</w>"
    ],
    [
      "ա",
      "տ"
    ],
    [
      "i",
      "f</w>"
    ],
    [
      "me",
      "tric</w>"
    ],
    [
      "ma",
      "l</w>"
    ],
    [
      "c",
      "ur"
    ],
    [
      "E",
      "dge</w>"
    ],
    [
      "F",
      "i"
    ],
    [
      "resul",
      "ts</w>"
    ],
    [
      "C",
      "or"
    ],
    [
      "te",
      "nt</w>"
    ],
    [
      "regres",
      "sion</w>"
    ],
    [
      "ar",
      "e</w>"
    ],
    [
      "n",
      "al</w>"
    ],
    [
      "doc",
      "um"
    ],
    [
      "ay",
      "load</w>"
    ],
    [
      "bu",
      "g</w>"
    ],
    [
      "hel",
      "per</w>"
    ],
    [
      "req",
      "uest</w>"
    ],
    [
      "uti",
      "lity</w>"
    ],
    [
      "stand",
      "al"
    ],
    [
      "standal",
      "one</w>"
    ],
    [
      "nee",
      "de"
    ],
    [
      "neede",
      "d</w>"
    ],
    [
      "con",
      "f"
    ],
    [
      "conf",
      "li"
    ],
    [
      "confli",
      "ct</w>"
    ],
    [
      "q",
      "ui"
    ],
    [
      "qui",
      "ck</w>"
    ],
    [
      "s",
      "mo"
    ],
    [
      "smo",
      "ke</w>"
    ],
    [
      "Mo",
      "dule</w>"
    ],
    [
      "la",
      "rger</w>"
    ],
    [
      "th",
      "an</w>"
    ],
    [
      "inte",
      "nde"
    ],
    [
      "intende",
      "d</w>"
    ],
    [
      "s",
      "co"
    ],
    [
      "sco",
      "pe</w>"
    ],
    [
      "min",
      "i"
    ],
    [
      "mini",
      "mal</w>"
    ],
    [
      "F",
      "unction</w>"
    ],
    [
      "cur",
      "ren"
    ],
    [
      "curren",
      "tly</w>"
    ],
    [
      "l",
      "acks</w>"
    ],
    [
      "ca",
      "se</w>"
    ],
    [
      "pre",
      "ser"
    ],
    [
      "preser",
      "ve</w>"
    ],
    [
      "un",
      "it</w>"
    ],
    [
      "cover",
      "age</w>"
    ],
    [
      "assum",
      "e</w>"
    ],
    [
      "sta",
      "ble</w>"
    ],
    [
      "the",
      "m</w>"
    ],
    [
      "app",
      "ra"
    ],
    [
      "appra",
      "is"
    ],
    [
      "apprais",
      "al</w>"
    ],
    [
      "f",
      "ree</w>"
    ],
    [
      "ne",
      "ss</w>"
    ],
    [
      "o",
      "ther</w>"
    ],
    [
      "si",
      "mp"
    ],
    [
      "li",
      "f"
    ],
    [
      "n",
      "ta"
    ],
    [
      "ff",
      "ec"
    ],
    [
      "docum",
      "en"
    ],
    [
      "pro",
      "p"
    ],
    [
      "V",
      "al"
    ],
    [
      "v",
      "</w>"
    ],
    [
      "O",
      "N"
    ],
    [
      "en",
      "ci"
    ],
    [
      "enci",
      "es</w>"
    ],
    [
      "re",
      "cord</w>"
    ],
    [
      "2",
      "0"
    ],
    [
      "Fi",
      "x</w>"
    ],
    [
      "corre",
      "ct"
    ],
    [
      "correct",
      "ness</w>"
    ],
    [
      "co",
      "nd"
    ],
    [
      "cond",
      "i"
    ],
    [
      "condi",
      "tion</w>"
    ],
    [
      "pro",
      "duces</w>"
    ],
    [
      "in",
      "corre"
    ],
    [
      "incorre",
      "ct</w>"
    ],
    [
      "Cor",
      "re"
    ],
    [
      "Corre",
      "ct</w>"
    ],
    [
      "log",
      "ic</w>"
    ],
    [
      "F",
      "ix"
    ],
    [
      "Fix",
      "ing</w>"
    ],
    [
      "ex",
      "pose</w>"
    ],
    [
      "la",
      "tent</w>"
    ],
    [
      "is",
      "su"
    ],
    [
      "issu",
      "es</w>"
    ],
    [
      "as",
      "se"
    ],
    [
      "asse",
      "rt</w>"
    ],
    [
      "N",
      "one</w>"
    ],
    [
      "cla",
      "ri"
    ],
    [
      "clari",
      "ty</w>"
    ],
    [
      "lo",
      "ng</w>"
    ],
    [
      "m",
      "ix"
    ],
    [
      "mix",
      "es</w>"
    ],
    [
      "un",
      "rela"
    ],
    [
      "unrela",
      "ted</w>"
    ],
    [
      "concer",
      "ns</w>"
    ],
    [
      "Ex",
      "tr"
    ],
    [
      "Extr",
      "act</w>"
    ],
    [
      "simp",
      "lif"
    ],
    [
      "simplif",
      "y</w>"
    ],
    [
      "confi",
      "r"
    ],
    [
      "confir",
      "m</w>"
    ],
    [
      "ca",
      "re"
    ],
    [
      "care",
      "ful</w>"
    ],
    [
      "ba",
      "se</w>"
    ],
    [
      "con",
      "tro"
    ],
    [
      "r",
      "e</w>"
    ],
    [
      "p",
      "p"
    ],
    [
      "pp",
      "ly</w>"
    ],
    [
      "a",
      "dd</w>"
    ],
    [
      "comp",
      "u"
    ],
    [
      "depend",
      "encies</w>"
    ],
    [
      "N",
      "e"
    ],
    [
      "sh",
      "o"
    ],
    [
      "g",
      "g"
    ],
    [
      "f",
      "la"
    ],
    [
      "C",
      "h"
    ],
    [
      "an",
      "g"
    ],
    [
      "ffec",
      "t</w>"
    ],
    [
      "ma",
      "ri"
    ],
    [
      "de",
      "nce</w>"
    ],
    [
      "l",
      "l</w>"
    ],
    [
      "s",
      "tri"
    ],
    [
      "prop",
      "ag"
    ],
    [
      "a",
      "ted</w>"
    ],
    [
      "pon",
      "se</w>"
    ],
    [
      "co",
      "de"
    ],
    [
      "code",
      "base</w>"
    ],
    [
      "th",
      "is</w>"
    ],
    [
      "concer",
      "n</w>"
    ],
    [
      "sk",
      "ele"
    ],
    [
      "skele",
      "t"
    ],
    [
      "skelet",
      "on</w>"
    ],
    [
      "Ne",
      "w</w>"
    ],
    [
      "sho",
      "ul"
    ],
    [
      "shoul",
      "d</w>"
    ],
    [
      "s",
      "ha"
    ],
    [
      "sha",
      "do"
    ],
    [
      "shado",
      "w</w>"
    ],
    [
      "contro",
      "ls</w>"
    ],
    [
      "to",
      "gg"
    ],
    [
      "togg",
      "les</w>"
    ],
    [
      "S",
      "et</w>"
    ],
    [
      "fla",
      "g</w>"
    ],
    [
      "Val",
      "ida"
    ],
    [
      "Valida",
      "te</w>"
    ],
    [
      "J",
      "S"
    ],
    [
      "JS",
      "ON"
    ],
    [
      "JSON",
      "</w>"
    ],
    [
      "sy",
      "nta"
    ],
    [
      "synta",
      "x</w>"
    ],
    [
      "Ch",
      "ang"
    ],
    [
      "Chang",
      "ing</w>"
    ],
    [
      "a",
      "ffect</w>"
    ],
    [
      "depend",
      "ent</w>"
    ],
    [
      "mo",
      "du"
    ],
    [
      "modu",
      "les</w>"
    ],
    [
      "sum",
      "mari"
    ],
    [
      "summari",
      "ze</w>"
    ],
    [
      "pri",
      "ma"
    ],
    [
      "prima",
      "ry</w>"
    ],
    [
      "confi",
      "dence</w>"
    ],
    [
      "sig",
      "nal</w>"
    ],
    [
      "ta",
      "ke</w>"
    ],
    [
      "requi",
      "re</w>"
    ],
    [
      "A",
      "pply</w>"
    ],
    [
      "s",
      "ma"
    ],
    [
      "sma",
      "ll</w>"
    ],
    [
      "tin",
      "y</w>"
    ],
    [
      "risk",
      "</w>"
    ],
    [
      "documen",
      "tation</w>"
    ],
    [
      "na",
      "ming</w>"
    ],
    [
      ">",
      "</w>"
    ],
    [
      "doc",
      "stri"
    ],
    [
      "docstri",
      "ng</w>"
    ],
    [
      "m",
      "u"
    ],
    [
      "mu",
      "st</w>"
    ],
    [
      "propag",
      "ated</w>"
    ],
    [
      "cal",
      "le"
    ],
    [
      "calle",
      "rs</w>"
    ],
    [
      "մի",
      "յու"
    ],
    [
      "միյու",
      "ն</w>"
    ],
    [
      "ar",
      "ch"
    ],
    [
      "մա",
      "ն"
    ],
    [
      "ման",
      "կ"
    ],
    [
      "ավ",
      "ել"
    ],
    [
      "ակ",
      "ան</w>"
    ],
    [
      "մաշ",
      "ին"
    ],
    [
      "ti",
      "on"
    ],
    [
      "եր",
      "ին</w>"
    ],
    [
      "s",
      "a"
    ],
    [
      "q",
      "u"
    ],
    [
      "լ",
      "ե"
    ],
    [
      "p",
      "ayload</w>"
    ],
    [
      "re",
      "du"
    ],
    [
      "mo",
      "de"
    ],
    [
      "res",
      "ponse</w>"
    ],
    [
      "ավել",
      "</w>"
    ],
    [
      "լե",
      "զ"
    ],
    [
      "լեզ",
      "ու"
    ],
    [
      "լեզու",
      "չ"
    ],
    [
      "լեզուչ",
      "ինին</w>"
    ],
    [
      "valida",
      "te</w>"
    ],
    [
      "redu",
      "ce</w>"
    ],
    [
      "հ",
      "աս"
    ],
    [
      "հաս",
      "ատ"
    ],
    [
      "հասատ",
      "ր"
    ],
    [
      "հ",
      "այ"
    ],
    [
      "e",
      "v"
    ],
    [
      "ինտերնետ",
      "ին</w>"
    ],
    [
      "par",
      "se</w>"
    ],
    [
      "compu",
      "te</w>"
    ],
    [
      "u",
      "ser</w>"
    ],
    [
      "em",
      "it</w>"
    ],
    [
      "մ",
      "ու"
    ],
    [
      "մանկ",
      "այինին</w>"
    ],
    [
      "միս",
      "երին</w>"
    ],
    [
      "re",
      "nd"
    ],
    [
      "rend",
      "er</w>"
    ],
    [
      "rg",
      "e</w>"
    ],
    [
      "pro",
      "file</w>"
    ],
    [
      "մու",
      "ս</w>"
    ],
    [
      "հայ",
      "տ</w>"
    ],
    [
      "հիմն",
      "ակ"
    ],
    [
      "ինտեր",
      "ե"
    ],
    [
      "ինտերե",
      "ս</w>"
    ],
    [
      "մաշին",
      "այինին</w>"
    ],
    [
      "ev",
      "ent</w>"
    ],
    [
      "re",
      "port</w>"
    ],
    [
      "l",
      "ine</w>"
    ],
    [
      "կ",
      "ար"
    ],
    [
      "հիմնակ",
      "ական</w>"
    ],
    [
      "b",
      "ui"
    ],
    [
      "bui",
      "l"
    ],
    [
      "v",
      "er</w>"
    ],
    [
      "qu",
      "er"
    ],
    [
      "quer",
      "y</w>"
    ],
    [
      "v",
      "o"
    ],
    [
      "lo",
      "g</w>"
    ],
    [
      "հասատր",
      "ակ"
    ],
    [
      "հասատրակ",
      "ա"
    ],
    [
      "հասատրակա",
      "նին</w>"
    ],
    [
      "ite",
      "m</w>"
    ],
    [
      "n",
      "orma"
    ],
    [
      "norma",
      "li"
    ],
    [
      "normali",
      "ze</w>"
    ],
    [
      "s",
      "t"
    ],
    [
      "fi",
      "el"
    ],
    [
      "fiel",
      "d</w>"
    ],
    [
      "ke",
      "n</w>"
    ],
    [
      "հավաստեր",
      "ին</w>"
    ],
    [
      "ag",
      "g"
    ],
    [
      "agg",
      "reg"
    ],
    [
      "aggreg",
      "ate</w>"
    ],
    [
      "sa",
      "ve</w>"
    ],
    [
      "me",
      "rge</w>"
    ],
    [
      "in",
      "vo"
    ],
    [
      "i",
      "ce</w>"
    ],
    [
      "to",
      "ken</w>"
    ],
    [
      "մորք",
      "ին</w>"
    ],
    [
      "buil",
      "d</w>"
    ],
    [
      "ma",
      "p</w>"
    ],
    [
      "invo",
      "ice</w>"
    ],
    [
      "or",
      "der</w>"
    ],
    [
      "թ",
      "եղնությունին</w>"
    ],
    [
      "i",
      "ve</w>"
    ],
    [
      "տ",
      "եղնությունին</w>"
    ],
    [
      "կար",
      "ությունին</w>"
    ],
    [
      "te",
      "s</w>"
    ],
    [
      "tion",
      "s</w>"
    ],
    [
      "arch",
      "ive</w>"
    ],
    [
      "or",
      "e</w>"
    ],
    [
      "li",
      "ent</w>"
    ],
    [
      "h",
      "it</w>"
    ],
    [
      "p",
      "lo"
    ],
    [
      "ma",
      "</w>"
    ],
    [
      "k",
      "en"
    ],
    [
      "հավաս",
      "տ"
    ],
    [
      "und",
      "le</w>"
    ],
    [
      "de",
      "plo"
    ],
    [
      "spli",
      "t</w>"
    ],
    [
      "c",
      "e"
    ],
    [
      "ու",
      "վ"
    ],
    [
      "mode",
      "l</w>"
    ],
    [
      "2",
      "4</w>"
    ],
    [
      "sc",
      "an</w>"
    ],
    [
      "is",
      "try</w>"
    ],
    [
      "միս",
      "ուվ"
    ],
    [
      "ա",
      "ք"
    ],
    [
      "deplo",
      "y</w>"
    ],
    [
      "b",
      "i"
    ],
    [
      "ու",
      "մ"
    ],
    [
      "կ",
      "ր"
    ],
    [
      "կր",
      "իմ"
    ],
    [
      "կրիմ",
      "</w>"
    ],
    [
      "o",
      "u"
    ],
    [
      "w",
      "or"
    ],
    [
      "s",
      "et</w>"
    ],
    [
      "ken",
      "izer</w>"
    ],
    [
      "3",
      "8</w>"
    ],
    [
      "2",
      "1"
    ],
    [
      "բար",
      "աք"
    ],
    [
      "մորք",
      "</w>"
    ],
    [
      "ser",
      "ver</w>"
    ],
    [
      "st",
      "ore</w>"
    ],
    [
      "6",
      "1</w>"
    ],
    [
      "7",
      "5</w>"
    ],
    [
      "c",
      "lient</w>"
    ],
    [
      "2",
      "8"
    ],
    [
      "3",
      "8"
    ],
    [
      "c",
      "al</w>"
    ],
    [
      "միսուվ",
      "</w>"
    ],
    [
      "de",
      "s</w>"
    ],
    [
      "se",
      "s</w>"
    ],
    [
      "1",
      "2</w>"
    ],
    [
      "3",
      "5</w>"
    ],
    [
      "4",
      "9</w>"
    ],
    [
      "9",
      "8</w>"
    ],
    [
      "հավաստ",
      "ի</w>"
    ],
    [
      "g",
      "h"
    ],
    [
      "3",
      "1</w>"
    ],
    [
      "4",
      "6</w>"
    ],
    [
      "5",
      "7</w>"
    ],
    [
      "3",
      "2"
    ],
    [
      "provi",
      "des</w>"
    ],
    [
      "e",
      "d</w>"
    ],
    [
      "ում",
      "</w>"
    ],
    [
      "b",
      "undle</w>"
    ],
    [
      "4",
      "5</w>"
    ],
    [
      "6",
      "0</w>"
    ],
    [
      "7",
      "1</w>"
    ],
    [
      "9",
      "4</w>"
    ],
    [
      "m",
      "en"
    ],
    [
      "այ",
      "ր"
    ],
    [
      "հավաստեր",
      "</w>"
    ],
    [
      "ա",
      "ռ"
    ],
    [
      "ինտերնետ",
      "ի</w>"
    ],
    [
      "3",
      "0</w>"
    ],
    [
      "ta",
      "set</w>"
    ],
    [
      "1",
      "9</w>"
    ],
    [
      "to",
      "kenizer</w>"
    ],
    [
      "ha",
      "nd"
    ],
    [
      "6",
      "4</w>"
    ],
    [
      "6",
      "8</w>"
    ],
    [
      "7",
      "2</w>"
    ],
    [
      "sy",
      "ste"
    ],
    [
      "a",
      "tes</w>"
    ],
    [
      "g",
      "ra"
    ],
    [
      "մ",
      "այր"
    ],
    [
      "մայր",
      "ում</w>"
    ],
    [
      "բարաք",
      "</w>"
    ],
    [
      "2",
      "0</w>"
    ],
    [
      "3",
      "7</w>"
    ],
    [
      "3",
      "9</w>"
    ],
    [
      "5",
      "0</w>"
    ],
    [
      "5",
      "2</w>"
    ],
    [
      "5",
      "3</w>"
    ],
    [
      "6",
      "7</w>"
    ],
    [
      "7",
      "3</w>"
    ],
    [
      "7",
      "4</w>"
    ],
    [
      "7",
      "6</w>"
    ],
    [
      "7",
      "8</w>"
    ],
    [
      "7",
      "9</w>"
    ],
    [
      "9",
      "0</w>"
    ],
    [
      "9",
      "3</w>"
    ],
    [
      "reg",
      "istry</w>"
    ],
    [
      "3",
      "0"
    ],
    [
      "այ",
      "ին</w>"
    ],
    [
      "ma",
      "n"
    ],
    [
      "w",
      "e"
    ],
    [
      "o",
      "f</w>"
    ],
    [
      "d",
      "e</w>"
    ],
    [
      "v",
      "es</w>"
    ],
    [
      "mode",
      "ls</w>"
    ],
    [
      "1",
      "3</w>"
    ],
    [
      "sche",
      "ma</w>"
    ],
    [
      "1",
      "5</w>"
    ],
    [
      "1",
      "6</w>"
    ],
    [
      "2",
      "2</w>"
    ],
    [
      "2",
      "6</w>"
    ],
    [
      "2",
      "7</w>"
    ],
    [
      "3",
      "6</w>"
    ],
    [
      "4",
      "1</w>"
    ],
    [
      "4",
      "8</w>"
    ],
    [
      "5",
      "6</w>"
    ],
    [
      "5",
      "9</w>"
    ],
    [
      "6",
      "3</w>"
    ],
    [
      "8",
      "3</w>"
    ],
    [
      "8",
      "7</w>"
    ],
    [
      "9",
      "9</w>"
    ],
    [
      "bi",
      "lity</w>"
    ],
    [
      "ը",
      "ն</w>"
    ],
    [
      "մաշ",
      "ին</w>"
    ],
    [
      "g",
      "en"
    ],
    [
      "le",
      "ar"
    ],
    [
      "b",
      "</w>"
    ],
    [
      "e",
      "n</w>"
    ],
    [
      "t",
      "al</w>"
    ],
    [
      "1",
      "1</w>"
    ],
    [
      "M",
      "e"
    ],
    [
      "2",
      "5</w>"
    ],
    [
      "3",
      "4</w>"
    ],
    [
      "S",
      "er"
    ],
    [
      "4",
      "7</w>"
    ],
    [
      "5",
      "4</w>"
    ],
    [
      "ch",
      "e"
    ],
    [
      "6",
      "2</w>"
    ],
    [
      "8",
      "2</w>"
    ],
    [
      "8",
      "5</w>"
    ],
    [
      "8",
      "9</w>"
    ],
    [
      "9",
      "2</w>"
    ],
    [
      "9",
      "7</w>"
    ],
    [
      "ությու",
      "ն</w>"
    ],
    [
      "u",
      "res</w>"
    ],
    [
      "p",
      "l"
    ],
    [
      "d",
      "s</w>"
    ],
    [
      "v",
      "a"
    ],
    [
      "d",
      "is"
    ],
    [
      "te",
      "r"
    ],
    [
      "թամ",
      "ինին</w>"
    ],
    [
      "k",
      "s</w>"
    ],
    [
      "կ",
      "առ"
    ],
    [
      "կառ",
      "ի"
    ],
    [
      "op",
      "ti"
    ],
    [
      "1",
      "0</w>"
    ],
    [
      "1",
      "7</w>"
    ],
    [
      "2",
      "1</w>"
    ],
    [
      "2",
      "3</w>"
    ],
    [
      "3",
      "2</w>"
    ],
    [
      "3",
      "3</w>"
    ],
    [
      "4",
      "2</w>"
    ],
    [
      "hand",
      "ler</w>"
    ],
    [
      "4",
      "3</w>"
    ],
    [
      "4",
      "4</w>"
    ],
    [
      "S",
      "che"
    ],
    [
      "Sche",
      "ma</w>"
    ],
    [
      "6",
      "5</w>"
    ],
    [
      "6",
      "9</w>"
    ],
    [
      "9",
      "6</w>"
    ],
    [
      "me",
      "as"
    ],
    [
      "man",
      "ag"
    ],
    [
      "em",
      "ent</w>"
    ],
    [
      "n",
      "ing</w>"
    ],
    [
      "կառի",
      "տ</w>"
    ],
    [
      "log",
      "y</w>"
    ],
    [
      "opti",
      "m"
    ],
    [
      "gh",
      "</w>"
    ],
    [
      "gen",
      "er"
    ],
    [
      "8",
      "0</w>"
    ],
    [
      "re",
      "a"
    ],
    [
      "C",
      "on"
    ],
    [
      "2",
      "9</w>"
    ],
    [
      "Ser",
      "ver</w>"
    ],
    [
      "5",
      "5</w>"
    ],
    [
      "5",
      "8</w>"
    ],
    [
      "6",
      "6</w>"
    ],
    [
      "7",
      "0</w>"
    ],
    [
      "8",
      "6</w>"
    ],
    [
      "9",
      "1</w>"
    ],
    [
      "9",
      "5</w>"
    ],
    [
      "da",
      "taset</w>"
    ],
    [
      "Re",
      "cord</w>"
    ],
    [
      "10",
      "9</w>"
    ],
    [
      "13",
      "4</w>"
    ],
    [
      "14",
      "2</w>"
    ],
    [
      "17",
      "2</w>"
    ],
    [
      "19",
      "7</w>"
    ],
    [
      "ce",
      "s"
    ],
    [
      "a",
      "u"
    ],
    [
      "ամ",
      "ան</w>"
    ],
    [
      "vi",
      "ces</w>"
    ],
    [
      "ա",
      "ն"
    ],
    [
      "tr",
      "an"
    ],
    [
      "m",
      "ent</w>"
    ],
    [
      "tin",
      "u"
    ],
    [
      "ou",
      "s</w>"
    ],
    [
      "g",
      "s</w>"
    ],
    [
      "e",
      "f"
    ],
    [
      "optim",
      "iz"
    ],
    [
      "th",
      "rou"
    ],
    [
      "throu",
      "gh</w>"
    ],
    [
      "inte",
      "r"
    ],
    [
      "lear",
      "ning</w>"
    ],
    [
      "H",
      "and"
    ],
    [
      "Hand",
      "ler</w>"
    ],
    [
      "1",
      "8</w>"
    ],
    [
      "E",
      "n"
    ],
    [
      "2",
      "8</w>"
    ],
    [
      "4",
      "0</w>"
    ],
    [
      "5",
      "1</w>"
    ],
    [
      "7",
      "7</w>"
    ],
    [
      "12",
      "3</w>"
    ],
    [
      "14",
      "8</w>"
    ],
    [
      "15",
      "6</w>"
    ],
    [
      "18",
      "6</w>"
    ],
    [
      "nd",
      "s</w>"
    ],
    [
      "meas",
      "ures</w>"
    ],
    [
      "syste",
      "ms</w>"
    ],
    [
      "ել",
      "ին</w>"
    ],
    [
      "tran",
      "s"
    ],
    [
      "u",
      "s"
    ],
    [
      "ո",
      "ր</w>"
    ],
    [
      "tr",
      "a"
    ],
    [
      "ինտերնե",
      "տ</w>"
    ],
    [
      "im",
      "pro"
    ],
    [
      "p",
      "er"
    ],
    [
      "tinu",
      "ous</w>"
    ],
    [
      "t",
      "wor"
    ],
    [
      "fi",
      "ci"
    ],
    [
      "in",
      "to</w>"
    ],
    [
      "a",
      "d"
    ],
    [
      "se",
      "arch"
    ],
    [
      "er",
      "s</w>"
    ],
    [
      "1",
      "4</w>"
    ],
    [
      "A",
      "dapter</w>"
    ],
    [
      "Re",
      "g"
    ],
    [
      "Reg",
      "istry</w>"
    ],
    [
      "8",
      "4</w>"
    ],
    [
      "10",
      "0</w>"
    ],
    [
      "T",
      "o"
    ],
    [
      "12",
      "0</w>"
    ],
    [
      "12",
      "8</w>"
    ],
    [
      "13",
      "0</w>"
    ],
    [
      "15",
      "5</w>"
    ],
    [
      "15",
      "8</w>"
    ],
    [
      "16",
      "3</w>"
    ],
    [
      "18",
      "3</w>"
    ],
    [
      "19",
      "1</w>"
    ],
    [
      "19",
      "3</w>"
    ],
    [
      "s",
      "ting</w>"
    ],
    [
      "in",
      "es</w>"
    ],
    [
      "o",
      "ri"
    ],
    [
      "եր",
      "</w>"
    ],
    [
      "de",
      "sig"
    ],
    [
      "f",
      "o"
    ],
    [
      "manag",
      "ement</w>"
    ],
    [
      "d",
      "in"
    ],
    [
      "men",
      "ts</w>"
    ],
    [
      "t",
      "u"
    ],
    [
      "tion",
      "al</w>"
    ],
    [
      "ն",
      "ի</w>"
    ],
    [
      "dis",
      "tri"
    ],
    [
      "com",
      "b"
    ],
    [
      "P",
      "</w>"
    ],
    [
      "con",
      "tinuous</w>"
    ],
    [
      "ne",
      "twor"
    ],
    [
      "ա",
      "ց"
    ],
    [
      "ef",
      "fici"
    ],
    [
      "m",
      "i"
    ],
    [
      "optimiz",
      "ation</w>"
    ],
    [
      "C",
      "o"
    ],
    [
      "search",
      "</w>"
    ],
    [
      "ou",
      "t"
    ],
    [
      "D",
      "a"
    ],
    [
      "Con",
      "fi"
    ],
    [
      "P",
      "ayload</w>"
    ],
    [
      "Me",
      "tric</w>"
    ],
    [
      "En",
      "try</w>"
    ],
    [
      "Mo",
      "de"
    ],
    [
      "Mode",
      "l</w>"
    ],
    [
      "S",
      "e"
    ],
    [
      "B",
      "undle</w>"
    ],
    [
      "8",
      "1</w>"
    ],
    [
      "10",
      "2</w>"
    ],
    [
      "10",
      "7</w>"
    ],
    [
      "11",
      "6</w>"
    ],
    [
      "12",
      "7</w>"
    ],
    [
      "13",
      "5</w>"
    ],
    [
      "13",
      "7</w>"
    ],
    [
      "14",
      "1</w>"
    ],
    [
      "14",
      "9</w>"
    ],
    [
      "16",
      "2</w>"
    ],
    [
      "16",
      "5</w>"
    ],
    [
      "17",
      "0</w>"
    ],
    [
      "17",
      "9</w>"
    ],
    [
      "19",
      "0</w>"
    ],
    [
      "19",
      "8</w>"
    ],
    [
      "տ",
      "ր"
    ],
    [
      "միս",
      "ելին</w>"
    ],
    [
      "desig",
      "n</w>"
    ],
    [
      "ro",
      "n"
    ],
    [
      "di",
      "f"
    ],
    [
      "dif",
      "fe"
    ],
    [
      "s",
      "o"
    ],
    [
      "t",
      "we"
    ],
    [
      "val",
      "u"
    ],
    [
      "distri",
      "bu"
    ],
    [
      "ri",
      "ng</w>"
    ],
    [
      "al",
      "ly</w>"
    ],
    [
      "ti",
      "c</w>"
    ],
    [
      "we",
      "b</w>"
    ],
    [
      "պ",
      "ատ"
    ],
    [
      "c",
      "ation</w>"
    ],
    [
      "ro",
      "ss</w>"
    ],
    [
      "en",
      "ts</w>"
    ],
    [
      "n",
      "ec"
    ],
    [
      "st",
      "u"
    ],
    [
      "stu",
      "di"
    ],
    [
      "studi",
      "es</w>"
    ],
    [
      "c",
      "s</w>"
    ],
    [
      "y",
      "si"
    ],
    [
      "se",
      "d</w>"
    ],
    [
      "I",
      "</w>"
    ],
    [
      "l",
      "an"
    ],
    [
      "lan",
      "gu"
    ],
    [
      "v",
      "el"
    ],
    [
      "m",
      "ul"
    ],
    [
      "req",
      "u"
    ],
    [
      "S",
      "t"
    ],
    [
      "Confi",
      "g</w>"
    ],
    [
      "C",
      "lient</w>"
    ],
    [
      "Re",
      "s"
    ],
    [
      "8",
      "8</w>"
    ],
    [
      "10",
      "1</w>"
    ],
    [
      "10",
      "3</w>"
    ],
    [
      "10",
      "4</w>"
    ],
    [
      "10",
      "5</w>"
    ],
    [
      "10",
      "6</w>"
    ],
    [
      "10",
      "8</w>"
    ],
    [
      "11",
      "0</w>"
    ],
    [
      "11",
      "1</w>"
    ],
    [
      "11",
      "2</w>"
    ],
    [
      "11",
      "3</w>"
    ],
    [
      "11",
      "4</w>"
    ],
    [
      "11",
      "5</w>"
    ],
    [
      "11",
      "7</w>"
    ],
    [
      "11",
      "8</w>"
    ],
    [
      "11",
      "9</w>"
    ],
    [
      "12",
      "1</w>"
    ],
    [
      "12",
      "2</w>"
    ],
    [
      "12",
      "4</w>"
    ],
    [
      "12",
      "5</w>"
    ],
    [
      "12",
      "6</w>"
    ],
    [
      "12",
      "9</w>"
    ],
    [
      "13",
      "1</w>"
    ],
    [
      "13",
      "2</w>"
    ],
    [
      "13",
      "3</w>"
    ],
    [
      "13",
      "6</w>"
    ],
    [
      "13",
      "8</w>"
    ],
    [
      "13",
      "9</w>"
    ],
    [
      "14",
      "0</w>"
    ],
    [
      "14",
      "3</w>"
    ],
    [
      "14",
      "4</w>"
    ],
    [
      "14",
      "5</w>"
    ],
    [
      "14",
      "6</w>"
    ],
    [
      "14",
      "7</w>"
    ],
    [
      "15",
      "0</w>"
    ],
    [
      "15",
      "1</w>"
    ],
    [
      "15",
      "2</w>"
    ],
    [
      "15",
      "3</w>"
    ],
    [
      "15",
      "4</w>"
    ],
    [
      "15",
      "7</w>"
    ],
    [
      "15",
      "9</w>"
    ],
    [
      "16",
      "0</w>"
    ],
    [
      "16",
      "1</w>"
    ],
    [
      "16",
      "4</w>"
    ],
    [
      "16",
      "6</w>"
    ],
    [
      "16",
      "7</w>"
    ],
    [
      "16",
      "8</w>"
    ],
    [
      "16",
      "9</w>"
    ],
    [
      "17",
      "1</w>"
    ],
    [
      "17",
      "3</w>"
    ],
    [
      "17",
      "4</w>"
    ],
    [
      "17",
      "5</w>"
    ],
    [
      "17",
      "6</w>"
    ],
    [
      "17",
      "7</w>"
    ],
    [
      "17",
      "8</w>"
    ],
    [
      "18",
      "0</w>"
    ],
    [
      "18",
      "1</w>"
    ],
    [
      "18",
      "2</w>"
    ],
    [
      "18",
      "4</w>"
    ],
    [
      "18",
      "5</w>"
    ],
    [
      "18",
      "7</w>"
    ],
    [
      "18",
      "8</w>"
    ],
    [
      "18",
      "9</w>"
    ],
    [
      "19",
      "2</w>"
    ],
    [
      "19",
      "4</w>"
    ],
    [
      "19",
      "5</w>"
    ],
    [
      "19",
      "6</w>"
    ],
    [
      "19",
      "9</w>"
    ],
    [
      "4",
      "0"
    ],
    [
      "0",
      "5</w>"
    ],
    [
      "ac",
      "ce"
    ],
    [
      "syste",
      "m</w>"
    ],
    [
      "ti",
      "es</w>"
    ],
    [
      "f",
      "or"
    ],
    [
      "ct",
      "ure</w>"
    ],
    [
      "ser",
      "vices</w>"
    ],
    [
      "ու",
      "ր"
    ],
    [
      "vi",
      "ron"
    ],
    [
      "re",
      "duces</w>"
    ],
    [
      "i",
      "cal</w>"
    ],
    [
      "ճ",
      "ո"
    ],
    [
      "s",
      "s"
    ],
    [
      "tra",
      "in"
    ],
    [
      "un",
      "c"
    ],
    [
      "con",
      "ver"
    ],
    [
      "in",
      "e"
    ],
    [
      "p",
      "h"
    ],
    [
      "enab",
      "les</w>"
    ],
    [
      "u",
      "tion</w>"
    ],
    [
      "comb",
      "ines</w>"
    ],
    [
      "u",
      "ser"
    ],
    [
      "user",
      "s</w>"
    ],
    [
      "pre",
      "di"
    ],
    [
      "հ",
      "ար"
    ],
    [
      "հար",
      "աս"
    ],
    [
      "be",
      "twe"
    ],
    [
      "betwe",
      "en</w>"
    ],
    [
      "tu",
      "al</w>"
    ],
    [
      "networ",
      "ks</w>"
    ],
    [
      "en",
      "c"
    ],
    [
      "para",
      "me"
    ],
    [
      "forma",
      "nce</w>"
    ],
    [
      "ն",
      "որ</w>"
    ],
    [
      "ս",
      "այ"
    ],
    [
      "սայ",
      "ած"
    ],
    [
      "սայած",
      "տ</w>"
    ],
    [
      "ec",
      "i"
    ],
    [
      "pro",
      "ces"
    ],
    [
      "c",
      "ts</w>"
    ],
    [
      "i",
      "ty</w>"
    ],
    [
      "gener",
      "ation</w>"
    ],
    [
      "langu",
      "age</w>"
    ],
    [
      "ti",
      "ves</w>"
    ],
    [
      "a",
      "r</w>"
    ],
    [
      "P",
      "ro"
    ],
    [
      "va",
      "ri"
    ],
    [
      "s",
      "tr"
    ],
    [
      "po",
      "si"
    ],
    [
      "p",
      "a"
    ],
    [
      "a",
      "s</w>"
    ],
    [
      "Da",
      "taset</w>"
    ],
    [
      "Re",
      "q"
    ],
    [
      "Req",
      "uest</w>"
    ],
    [
      "To",
      "kenizer</w>"
    ],
    [
      "21",
      "0</w>"
    ],
    [
      "2",
      "35</w>"
    ],
    [
      "2",
      "60</w>"
    ],
    [
      "2",
      "73</w>"
    ],
    [
      "2",
      "98</w>"
    ],
    [
      "32",
      "3</w>"
    ],
    [
      "3",
      "36</w>"
    ],
    [
      "3",
      "61</w>"
    ],
    [
      "38",
      "6</w>"
    ],
    [
      "3",
      "99</w>"
    ],
    [
      "7",
      "0"
    ],
    [
      "0",
      "4</w>"
    ],
    [
      "0",
      "9</w>"
    ],
    [
      "si",
      "bility</w>"
    ],
    [
      "un",
      "i"
    ],
    [
      "acce",
      "ss</w>"
    ],
    [
      "fi",
      "nds</w>"
    ],
    [
      "au",
      "to"
    ],
    [
      "t",
      "re"
    ],
    [
      "խ",
      "ակ"
    ],
    [
      "խակ",
      "ն"
    ],
    [
      "խակն",
      "աման</w>"
    ],
    [
      "ite",
      "cture</w>"
    ],
    [
      "de",
      "ci"
    ],
    [
      "t",
      "ure</w>"
    ],
    [
      "մանկ",
      "ային</w>"
    ],
    [
      "diffe",
      "re"
    ],
    [
      "co",
      "or"
    ],
    [
      "coor",
      "din"
    ],
    [
      "al",
      "iz"
    ],
    [
      "կար",
      "ություն</w>"
    ],
    [
      "T",
      "</w>"
    ],
    [
      "pro",
      "gra"
    ],
    [
      "f",
      "unc"
    ],
    [
      "պ",
      "ր"
    ],
    [
      "distribu",
      "tion</w>"
    ],
    [
      "ex",
      "ec"
    ],
    [
      "chan",
      "g"
    ],
    [
      "chang",
      "es</w>"
    ],
    [
      "c",
      "re"
    ],
    [
      "ճ",
      "աման</w>"
    ],
    [
      "impro",
      "ves</w>"
    ],
    [
      "du",
      "al</w>"
    ],
    [
      "r",
      "st</w>"
    ],
    [
      "te",
      "n"
    ],
    [
      "mo",
      "ry</w>"
    ],
    [
      "հարաս",
      "տ</w>"
    ],
    [
      "ի",
      "ր"
    ],
    [
      "app",
      "li"
    ],
    [
      "p",
      "tion</w>"
    ],
    [
      "i",
      "r"
    ],
    [
      "b",
      "al"
    ],
    [
      "bal",
      "an"
    ],
    [
      "parame",
      "te"
    ],
    [
      "paramete",
      "rs</w>"
    ],
    [
      "u",
      "ses</w>"
    ],
    [
      "en",
      "viron"
    ],
    [
      "te",
      "ch"
    ],
    [
      "tech",
      "no"
    ],
    [
      "techno",
      "logy</w>"
    ],
    [
      "մաշին",
      "ային</w>"
    ],
    [
      "հասատր",
      "ական</w>"
    ],
    [
      "ությու",
      "նի</w>"
    ],
    [
      "ն",
      "երին</w>"
    ],
    [
      "provi",
      "de</w>"
    ],
    [
      "a",
      "b"
    ],
    [
      "forma",
      "tion</w>"
    ],
    [
      "te",
      "sting</w>"
    ],
    [
      "con",
      "nec"
    ],
    [
      "de",
      "fi"
    ],
    [
      "defi",
      "n"
    ],
    [
      "str",
      "u"
    ],
    [
      "A",
      "P"
    ],
    [
      "requ",
      "ests</w>"
    ],
    [
      "m",
      "is"
    ],
    [
      "s",
      "ing</w>"
    ],
    [
      "na",
      "me</w>"
    ],
    [
      "h",
      "o"
    ],
    [
      "wor",
      "k"
    ],
    [
      "St",
      "ore</w>"
    ],
    [
      "Se",
      "ssion</w>"
    ],
    [
      "Res",
      "ponse</w>"
    ],
    [
      "21",
      "1</w>"
    ],
    [
      "2",
      "24</w>"
    ],
    [
      "2",
      "49</w>"
    ],
    [
      "P",
      "ipeline</w>"
    ],
    [
      "2",
      "74</w>"
    ],
    [
      "28",
      "7</w>"
    ],
    [
      "3",
      "12</w>"
    ],
    [
      "3",
      "37</w>"
    ],
    [
      "3",
      "50</w>"
    ],
    [
      "3",
      "75</w>"
    ],
    [
      "4",
      "49</w>"
    ],
    [
      "5",
      "12</w>"
    ],
    [
      "5",
      "75</w>"
    ],
    [
      "6",
      "38</w>"
    ],
    [
      "70",
      "1</w>"
    ],
    [
      "7",
      "64</w>"
    ],
    [
      "8",
      "27</w>"
    ],
    [
      "8",
      "90</w>"
    ],
    [
      "9",
      "53</w>"
    ],
    [
      "10",
      "16</w>"
    ],
    [
      "10",
      "79</w>"
    ],
    [
      "1",
      "142</w>"
    ],
    [
      "12",
      "05</w>"
    ],
    [
      "12",
      "68</w>"
    ],
    [
      "13",
      "31</w>"
    ],
    [
      "13",
      "94</w>"
    ],
    [
      "14",
      "0"
    ],
    [
      "14",
      "57</w>"
    ],
    [
      "15",
      "20</w>"
    ],
    [
      "15",
      "83</w>"
    ],
    [
      "16",
      "46</w>"
    ],
    [
      "17",
      "09</w>"
    ],
    [
      "17",
      "72</w>"
    ],
    [
      "18",
      "35</w>"
    ],
    [
      "18",
      "98</w>"
    ],
    [
      "19",
      "61</w>"
    ],
    [
      "20",
      "24</w>"
    ],
    [
      "20",
      "87</w>"
    ],
    [
      "4",
      "24</w>"
    ],
    [
      "4",
      "62</w>"
    ],
    [
      "5",
      "25</w>"
    ],
    [
      "ces",
      "sibility</w>"
    ],
    [
      "en",
      "su"
    ],
    [
      "ensu",
      "res</w>"
    ],
    [
      "wi",
      "th"
    ],
    [
      "u",
      "s</w>"
    ],
    [
      "pl",
      "at"
    ],
    [
      "plat",
      "for"
    ],
    [
      "arch",
      "itecture</w>"
    ],
    [
      "ti",
      "cal</w>"
    ],
    [
      "պ",
      "ուր"
    ],
    [
      "պուր",
      "գ"
    ],
    [
      "պուրգ",
      "այ"
    ],
    [
      "պուրգայ",
      "ուն</w>"
    ],
    [
      "ն",
      "ըն</w>"
    ],
    [
      "deci",
      "sion</w>"
    ],
    [
      "men",
      "tal</w>"
    ],
    [
      "z",
      "es</w>"
    ],
    [
      "li",
      "ver"
    ],
    [
      "ag",
      "es</w>"
    ],
    [
      "an",
      "s</w>"
    ],
    [
      "տ",
      "վու"
    ],
    [
      "տվու",
      "թյու"
    ],
    [
      "տր",
      "ան"
    ],
    [
      "տրան",
      "ս"
    ],
    [
      "տրանս",
      "զ"
    ],
    [
      "de",
      "vices</w>"
    ],
    [
      "թամ",
      "ին"
    ],
    [
      "թամին",
      "ն"
    ],
    [
      "թամինն",
      "եր</w>"
    ],
    [
      "progra",
      "m"
    ],
    [
      "program",
      "ming</w>"
    ],
    [
      "e",
      "valu"
    ],
    [
      "պր",
      "ած"
    ],
    [
      "պրած",
      "ք"
    ],
    [
      "desc",
      "ri"
    ],
    [
      "ur",
      "al</w>"
    ],
    [
      "cal",
      "ly</w>"
    ],
    [
      "exec",
      "ution</w>"
    ],
    [
      "en",
      "ce</w>"
    ],
    [
      "to",
      "ken"
    ],
    [
      "token",
      "s</w>"
    ],
    [
      "ր",
      "ին</w>"
    ],
    [
      "ex",
      "p"
    ],
    [
      "predi",
      "c"
    ],
    [
      "b",
      "y</w>"
    ],
    [
      "wor",
      "k</w>"
    ],
    [
      "f",
      "low</w>"
    ],
    [
      "պատ",
      "վու"
    ],
    [
      "ու",
      "յ"
    ],
    [
      "F",
      "e"
    ],
    [
      "h",
      "i"
    ],
    [
      "an",
      "al"
    ],
    [
      "res",
      "o"
    ],
    [
      "reso",
      "ur"
    ],
    [
      "resour",
      "ce</w>"
    ],
    [
      "ac",
      "ross</w>"
    ],
    [
      "r",
      "y"
    ],
    [
      "b",
      "li"
    ],
    [
      "us",
      "to"
    ],
    [
      "ա",
      "շ"
    ],
    [
      "comp",
      "le"
    ],
    [
      "o",
      "logy</w>"
    ],
    [
      "mi",
      "cs</w>"
    ],
    [
      "vi",
      "ty</w>"
    ],
    [
      "ele",
      "c"
    ],
    [
      "st",
      "or"
    ],
    [
      "per",
      "formance</w>"
    ],
    [
      "ac",
      "ti"
    ],
    [
      "ac",
      "tions</w>"
    ],
    [
      "ե",
      "ն"
    ],
    [
      "m",
      "er</w>"
    ],
    [
      "sp",
      "eci"
    ],
    [
      "me",
      "mory</w>"
    ],
    [
      "ph",
      "ysi"
    ],
    [
      "physi",
      "cal</w>"
    ],
    [
      "g",
      "ori"
    ],
    [
      "ba",
      "sed</w>"
    ],
    [
      "ce",
      "d</w>"
    ],
    [
      "I",
      "n"
    ],
    [
      "op",
      "er"
    ],
    [
      "A",
      "I</w>"
    ],
    [
      "e",
      "val</w>"
    ],
    [
      "be",
      "d"
    ],
    [
      "w",
      "a"
    ],
    [
      "mul",
      "ti"
    ],
    [
      "multi",
      "p"
    ],
    [
      "multip",
      "le</w>"
    ],
    [
      "proces",
      "ses</w>"
    ],
    [
      "rg",
      "an"
    ],
    [
      "com",
      "m"
    ],
    [
      "ac",
      "h"
    ],
    [
      "um",
      "</w>"
    ],
    [
      "sta",
      "tes</w>"
    ],
    [
      "v",
      "e"
    ],
    [
      "al",
      "ity</w>"
    ],
    [
      "gra",
      "di"
    ],
    [
      "en",
      "ti"
    ],
    [
      "մի",
      "</w>"
    ],
    [
      "pro",
      "du"
    ],
    [
      "e",
      "ts</w>"
    ],
    [
      "de",
      "vel"
    ],
    [
      "devel",
      "op"
    ],
    [
      "G",
      "</w>"
    ],
    [
      "20",
      "0</w>"
    ],
    [
      "20",
      "3</w>"
    ],
    [
      "20",
      "4</w>"
    ],
    [
      "21",
      "8</w>"
    ],
    [
      "2",
      "21</w>"
    ],
    [
      "2",
      "31</w>"
    ],
    [
      "2",
      "46</w>"
    ],
    [
      "2",
      "56</w>"
    ],
    [
      "2",
      "59</w>"
    ],
    [
      "28",
      "1</w>"
    ],
    [
      "28",
      "4</w>"
    ],
    [
      "2",
      "94</w>"
    ],
    [
      "30",
      "9</w>"
    ],
    [
      "3",
      "19</w>"
    ],
    [
      "32",
      "2</w>"
    ],
    [
      "3",
      "44</w>"
    ],
    [
      "3",
      "47</w>"
    ],
    [
      "3",
      "57</w>"
    ],
    [
      "3",
      "72</w>"
    ],
    [
      "38",
      "2</w>"
    ],
    [
      "38",
      "5</w>"
    ],
    [
      "40",
      "0</w>"
    ],
    [
      "4",
      "63</w>"
    ],
    [
      "5",
      "26</w>"
    ],
    [
      "5",
      "89</w>"
    ],
    [
      "6",
      "52</w>"
    ],
    [
      "7",
      "15</w>"
    ],
    [
      "7",
      "78</w>"
    ],
    [
      "8",
      "41</w>"
    ],
    [
      "9",
      "04</w>"
    ],
    [
      "9",
      "67</w>"
    ],
    [
      "0",
      "2</w>"
    ],
    [
      "10",
      "30</w>"
    ],
    [
      "10",
      "93</w>"
    ],
    [
      "1",
      "156</w>"
    ],
    [
      "12",
      "19</w>"
    ],
    [
      "12",
      "82</w>"
    ],
    [
      "13",
      "45</w>"
    ],
    [
      "140",
      "8</w>"
    ],
    [
      "14",
      "71</w>"
    ],
    [
      "15",
      "34</w>"
    ],
    [
      "15",
      "97</w>"
    ],
    [
      "16",
      "60</w>"
    ],
    [
      "17",
      "23</w>"
    ],
    [
      "17",
      "86</w>"
    ],
    [
      "18",
      "49</w>"
    ],
    [
      "19",
      "12</w>"
    ],
    [
      "19",
      "75</w>"
    ],
    [
      "20",
      "38</w>"
    ],
    [
      "4",
      "38</w>"
    ],
    [
      "4",
      "13</w>"
    ],
    [
      "4",
      "76</w>"
    ],
    [
      "5",
      "39</w>"
    ],
    [
      "ma",
      "ch"
    ],
    [
      "tre",
      "es</w>"
    ],
    [
      "min",
      "im"
    ],
    [
      "ճ",
      "ն"
    ],
    [
      "ճն",
      "տր"
    ],
    [
      "ճնտր",
      "ություն</w>"
    ],
    [
      "vi",
      "ce</w>"
    ],
    [
      "u",
      "sa"
    ],
    [
      "usa",
      "ble</w>"
    ],
    [
      "c",
      "ro"
    ],
    [
      "la",
      "y"
    ],
    [
      "միս",
      "եր</w>"
    ],
    [
      "այ",
      "ու"
    ],
    [
      "a",
      "va"
    ],
    [
      "si",
      "on"
    ],
    [
      "a",
      "bility</w>"
    ],
    [
      "o",
      "t"
    ],
    [
      "si",
      "ve</w>"
    ],
    [
      "differe",
      "nt</w>"
    ],
    [
      "sc",
      "re"
    ],
    [
      "si",
      "zes</w>"
    ],
    [
      "liver",
      "y</w>"
    ],
    [
      "me",
      "di"
    ],
    [
      "en",
      "g"
    ],
    [
      "իմ",
      "աս"
    ],
    [
      "coordin",
      "ates</w>"
    ],
    [
      "բարաք",
      "ըն</w>"
    ],
    [
      "ս",
      "տվությու"
    ],
    [
      "ստվությու",
      "ն</w>"
    ],
    [
      "հայ",
      "տ"
    ],
    [
      "ճո",
      "վու"
    ],
    [
      "տրանսզ",
      "որ</w>"
    ],
    [
      "pre",
      "se"
    ],
    [
      "li",
      "gh"
    ],
    [
      "պրածք",
      "</w>"
    ],
    [
      "e",
      "ch"
    ],
    [
      "conver",
      "ts</w>"
    ],
    [
      "descri",
      "b"
    ],
    [
      "describ",
      "es</w>"
    ],
    [
      "S",
      "c"
    ],
    [
      "Sc",
      "rip"
    ],
    [
      "Scrip",
      "t</w>"
    ],
    [
      "ser",
      "ver"
    ],
    [
      "server",
      "s</w>"
    ],
    [
      "r",
      "u"
    ],
    [
      "res",
      "pon"
    ],
    [
      "respon",
      "ses</w>"
    ],
    [
      "ում",
      "ին</w>"
    ],
    [
      "documen",
      "ts</w>"
    ],
    [
      "k",
      "no"
    ],
    [
      "kno",
      "w"
    ],
    [
      "know",
      "le"
    ],
    [
      "knowle",
      "dge</w>"
    ],
    [
      "evalu",
      "ates</w>"
    ],
    [
      "out",
      "com"
    ],
    [
      "H",
      "T"
    ],
    [
      "L",
      "</w>"
    ],
    [
      "valu",
      "es</w>"
    ],
    [
      "ind",
      "i"
    ],
    [
      "indi",
      "vi"
    ],
    [
      "indivi",
      "dual</w>"
    ],
    [
      "predic",
      "tions</w>"
    ],
    [
      "in",
      "t</w>"
    ],
    [
      "է",
      "ն"
    ],
    [
      "տ",
      "եղն"
    ],
    [
      "de",
      "ter"
    ],
    [
      "deter",
      "min"
    ],
    [
      "ra",
      "tes</w>"
    ],
    [
      "co",
      "de</w>"
    ],
    [
      "a",
      "i"
    ],
    [
      "o",
      "ver</w>"
    ],
    [
      "b",
      "an</w>"
    ],
    [
      "v",
      "is"
    ],
    [
      "vis",
      "u"
    ],
    [
      "պատվու",
      "մ"
    ],
    [
      "ten",
      "tion</w>"
    ],
    [
      "lo",
      "u"
    ],
    [
      "իր",
      "ան</w>"
    ],
    [
      "appli",
      "cation</w>"
    ],
    [
      "compu",
      "ting</w>"
    ],
    [
      "V",
      "ir"
    ],
    [
      "Vir",
      "tual</w>"
    ],
    [
      "enc",
      "ry"
    ],
    [
      "p",
      "u"
    ],
    [
      "աց",
      "ն"
    ],
    [
      "com",
      "pon"
    ],
    [
      "compon",
      "ents</w>"
    ],
    [
      "c",
      "usto"
    ],
    [
      "r",
      "un"
    ],
    [
      "re",
      "mo"
    ],
    [
      "remo",
      "ves</w>"
    ],
    [
      "B",
      "ay"
    ],
    [
      "Bay",
      "es</w>"
    ],
    [
      "cla",
      "s"
    ],
    [
      "effici",
      "ent</w>"
    ],
    [
      "environ",
      "ment</w>"
    ],
    [
      "b",
      "le"
    ],
    [
      "g",
      "l"
    ],
    [
      "sp",
      "ac"
    ],
    [
      "en",
      "e"
    ],
    [
      "stor",
      "age</w>"
    ],
    [
      "manag",
      "es</w>"
    ],
    [
      "anal",
      "ysi"
    ],
    [
      "analysi",
      "s</w>"
    ],
    [
      "M",
      "ix"
    ],
    [
      "աց",
      "ն</w>"
    ],
    [
      "inter",
      "actions</w>"
    ],
    [
      "կ",
      "ան</w>"
    ],
    [
      "առ",
      "ղ"
    ],
    [
      "առղ",
      "են"
    ],
    [
      "ma",
      "te"
    ],
    [
      "mate",
      "rial"
    ],
    [
      "material",
      "s</w>"
    ],
    [
      "a",
      "tions</w>"
    ],
    [
      "la",
      "be"
    ],
    [
      "p",
      "at"
    ],
    [
      "pat",
      "ter"
    ],
    [
      "fi",
      "es</w>"
    ],
    [
      "train",
      "ing</w>"
    ],
    [
      "pl",
      "ann"
    ],
    [
      "plann",
      "ing</w>"
    ],
    [
      "nee",
      "ds</w>"
    ],
    [
      "միս",
      "ելինին</w>"
    ],
    [
      "c",
      "ar"
    ],
    [
      "gori",
      "th"
    ],
    [
      "ac",
      "ing</w>"
    ],
    [
      "fo",
      "l"
    ],
    [
      "lo",
      "ws</w>"
    ],
    [
      "im",
      "p"
    ],
    [
      "g",
      "i"
    ],
    [
      "gi",
      "tal</w>"
    ],
    [
      "In",
      "ter"
    ],
    [
      "an",
      "ce</w>"
    ],
    [
      "r",
      "ap"
    ],
    [
      "rap",
      "h"
    ],
    [
      "a",
      "t</w>"
    ],
    [
      "ci",
      "ty</w>"
    ],
    [
      "wa",
      "ter</w>"
    ],
    [
      "de",
      "ep</w>"
    ],
    [
      "L",
      "a"
    ],
    [
      "inte",
      "g"
    ],
    [
      "c",
      "le"
    ],
    [
      "vel",
      "y</w>"
    ],
    [
      "c",
      "el"
    ],
    [
      "ta",
      "bo"
    ],
    [
      "o",
      "rgan"
    ],
    [
      "defin",
      "e</w>"
    ],
    [
      "ri",
      "es</w>"
    ],
    [
      "ma",
      "in"
    ],
    [
      "U",
      "</w>"
    ],
    [
      "tin",
      "gs</w>"
    ],
    [
      "cre",
      "ates</w>"
    ],
    [
      "comm",
      "uni"
    ],
    [
      "communi",
      "cation</w>"
    ],
    [
      "ti",
      "c"
    ],
    [
      "po",
      "r"
    ],
    [
      "de",
      "com"
    ],
    [
      "B",
      "e"
    ],
    [
      "pro",
      "ba"
    ],
    [
      "vari",
      "ab"
    ],
    [
      "variab",
      "les</w>"
    ],
    [
      "platfor",
      "m</w>"
    ],
    [
      "S",
      "u"
    ],
    [
      "t",
      "or"
    ],
    [
      "ad",
      "d"
    ],
    [
      "P",
      "er"
    ],
    [
      "d",
      "im"
    ],
    [
      "dim",
      "en"
    ],
    [
      "c",
      "rea"
    ],
    [
      "in",
      "formation</w>"
    ],
    [
      "bed",
      "din"
    ],
    [
      "beddin",
      "gs</w>"
    ],
    [
      "effici",
      "en"
    ],
    [
      "efficien",
      "tly</w>"
    ],
    [
      "մա",
      "տ"
    ],
    [
      "hand",
      "les</w>"
    ],
    [
      "AP",
      "I</w>"
    ],
    [
      "ու",
      "մի</w>"
    ],
    [
      "bi",
      "li"
    ],
    [
      "re",
      "li"
    ],
    [
      "with",
      "out</w>"
    ],
    [
      "ip",
      "</w>"
    ],
    [
      "connec",
      "tions</w>"
    ],
    [
      "n",
      "ch"
    ],
    [
      "nch",
      "ro"
    ],
    [
      "nchro",
      "no"
    ],
    [
      "stru",
      "ction</w>"
    ],
    [
      "ճո",
      "վ"
    ],
    [
      "si",
      "mul"
    ],
    [
      "al",
      "l</w>"
    ],
    [
      "ն",
      "վ"
    ],
    [
      "enc",
      "y</w>"
    ],
    [
      "M",
      "ul"
    ],
    [
      "Mul",
      "ti"
    ],
    [
      "c",
      "en"
    ],
    [
      "fi",
      "rst</w>"
    ],
    [
      "հավաստեր",
      "ի</w>"
    ],
    [
      "develop",
      "ment</w>"
    ],
    [
      "pa",
      "th</w>"
    ],
    [
      "ur",
      "l</w>"
    ],
    [
      "g",
      "et</w>"
    ],
    [
      "E",
      "r"
    ],
    [
      "Er",
      "ro"
    ],
    [
      "Erro",
      "r</w>"
    ],
    [
      "to",
      "tal</w>"
    ],
    [
      "w",
      "er</w>"
    ],
    [
      "forma",
      "t</w>"
    ],
    [
      "out",
      "put</w>"
    ],
    [
      "e",
      "ma"
    ],
    [
      "ema",
      "i"
    ],
    [
      "emai",
      "l</w>"
    ],
    [
      "C",
      "ON"
    ],
    [
      "CON",
      "F"
    ],
    [
      "CONF",
      "I"
    ],
    [
      "CONFI",
      "G</w>"
    ],
    [
      "rea",
      "d</w>"
    ],
    [
      "20",
      "1</w>"
    ],
    [
      "20",
      "2</w>"
    ],
    [
      "20",
      "5</w>"
    ],
    [
      "20",
      "6</w>"
    ],
    [
      "20",
      "7</w>"
    ],
    [
      "20",
      "8</w>"
    ],
    [
      "20",
      "9</w>"
    ],
    [
      "21",
      "7</w>"
    ],
    [
      "2",
      "25</w>"
    ],
    [
      "2",
      "28</w>"
    ],
    [
      "2",
      "38</w>"
    ],
    [
      "2",
      "42</w>"
    ],
    [
      "2",
      "53</w>"
    ],
    [
      "2",
      "63</w>"
    ],
    [
      "2",
      "66</w>"
    ],
    [
      "2",
      "67</w>"
    ],
    [
      "28",
      "0</w>"
    ],
    [
      "28",
      "8</w>"
    ],
    [
      "2",
      "91</w>"
    ],
    [
      "30",
      "1</w>"
    ],
    [
      "30",
      "5</w>"
    ],
    [
      "3",
      "16</w>"
    ],
    [
      "32",
      "6</w>"
    ],
    [
      "32",
      "9</w>"
    ],
    [
      "3",
      "30</w>"
    ],
    [
      "3",
      "43</w>"
    ],
    [
      "3",
      "51</w>"
    ],
    [
      "3",
      "54</w>"
    ],
    [
      "3",
      "64</w>"
    ],
    [
      "3",
      "68</w>"
    ],
    [
      "3",
      "79</w>"
    ],
    [
      "38",
      "9</w>"
    ],
    [
      "3",
      "92</w>"
    ],
    [
      "3",
      "93</w>"
    ],
    [
      "40",
      "7</w>"
    ],
    [
      "4",
      "35</w>"
    ],
    [
      "4",
      "70</w>"
    ],
    [
      "4",
      "98</w>"
    ],
    [
      "5",
      "33</w>"
    ],
    [
      "5",
      "61</w>"
    ],
    [
      "5",
      "96</w>"
    ],
    [
      "6",
      "24</w>"
    ],
    [
      "6",
      "59</w>"
    ],
    [
      "6",
      "87</w>"
    ],
    [
      "7",
      "22</w>"
    ],
    [
      "7",
      "50</w>"
    ],
    [
      "7",
      "85</w>"
    ],
    [
      "8",
      "13</w>"
    ],
    [
      "8",
      "48</w>"
    ],
    [
      "8",
      "76</w>"
    ],
    [
      "9",
      "11</w>"
    ],
    [
      "9",
      "39</w>"
    ],
    [
      "9",
      "74</w>"
    ],
    [
      "10",
      "02</w>"
    ],
    [
      "10",
      "37</w>"
    ],
    [
      "10",
      "65</w>"
    ],
    [
      "1",
      "100</w>"
    ],
    [
      "1",
      "128</w>"
    ],
    [
      "1",
      "163</w>"
    ],
    [
      "1",
      "191</w>"
    ],
    [
      "12",
      "26</w>"
    ],
    [
      "12",
      "54</w>"
    ],
    [
      "12",
      "89</w>"
    ],
    [
      "13",
      "17</w>"
    ],
    [
      "13",
      "52</w>"
    ],
    [
      "13",
      "80</w>"
    ],
    [
      "14",
      "15</w>"
    ],
    [
      "14",
      "43</w>"
    ],
    [
      "14",
      "78</w>"
    ],
    [
      "15",
      "0"
    ],
    [
      "150",
      "6</w>"
    ],
    [
      "15",
      "41</w>"
    ],
    [
      "15",
      "69</w>"
    ],
    [
      "16",
      "04</w>"
    ],
    [
      "16",
      "32</w>"
    ],
    [
      "16",
      "67</w>"
    ],
    [
      "16",
      "95</w>"
    ],
    [
      "17",
      "30</w>"
    ],
    [
      "17",
      "58</w>"
    ],
    [
      "17",
      "93</w>"
    ],
    [
      "18",
      "21</w>"
    ],
    [
      "18",
      "56</w>"
    ],
    [
      "18",
      "84</w>"
    ],
    [
      "19",
      "19</w>"
    ],
    [
      "19",
      "47</w>"
    ],
    [
      "19",
      "82</w>"
    ],
    [
      "20",
      "10</w>"
    ],
    [
      "20",
      "45</w>"
    ],
    [
      "20",
      "73</w>"
    ],
    [
      "4",
      "10</w>"
    ],
    [
      "4",
      "45</w>"
    ],
    [
      "4",
      "20</w>"
    ],
    [
      "4",
      "48</w>"
    ],
    [
      "4",
      "83</w>"
    ],
    [
      "5",
      "11</w>"
    ],
    [
      "5",
      "46</w>"
    ],
    [
      "A",
      "c"
    ],
    [
      "Ac",
      "cessibility</w>"
    ],
    [
      "in",
      "g"
    ],
    [
      "auto",
      "no"
    ],
    [
      "autono",
      "mo"
    ],
    [
      "bo",
      "o"
    ],
    [
      "boo",
      "sting</w>"
    ],
    [
      "minim",
      "iz"
    ],
    [
      "lo",
      "ss</w>"
    ],
    [
      "prop",
      "er"
    ],
    [
      "proper",
      "ties</w>"
    ],
    [
      "l",
      "li"
    ],
    [
      "Ser",
      "vice</w>"
    ],
    [
      "ori",
      "en"
    ],
    [
      "orien",
      "ted</w>"
    ],
    [
      "buil",
      "ds</w>"
    ],
    [
      "re",
      "usable</w>"
    ],
    [
      "f",
      "ar"
    ],
    [
      "far",
      "ming</w>"
    ],
    [
      "lay",
      "ers</w>"
    ],
    [
      "եր",
      "գ"
    ],
    [
      "երգ",
      "ան"
    ],
    [
      "երգան",
      "ու"
    ],
    [
      "երգանու",
      "յու"
    ],
    [
      "երգանույու",
      "նըն</w>"
    ],
    [
      "To",
      "tal</w>"
    ],
    [
      "b",
      "lo"
    ],
    [
      "blo",
      "c"
    ],
    [
      "k",
      "ing</w>"
    ],
    [
      "sion",
      "s</w>"
    ],
    [
      "sta",
      "in"
    ],
    [
      "e",
      "co"
    ],
    [
      "log",
      "ical</w>"
    ],
    [
      "fo",
      "ot"
    ],
    [
      "Res",
      "pon"
    ],
    [
      "Respon",
      "sive</w>"
    ],
    [
      "a",
      "dap"
    ],
    [
      "adap",
      "ts</w>"
    ],
    [
      "scre",
      "en</w>"
    ],
    [
      "ro",
      "bo"
    ],
    [
      "robo",
      "ts</w>"
    ],
    [
      "g",
      "o"
    ],
    [
      "us",
      "ly</w>"
    ],
    [
      "ci",
      "al</w>"
    ],
    [
      "au",
      "di"
    ],
    [
      "en",
      "ces</w>"
    ],
    [
      "իմաս",
      "ություն</w>"
    ],
    [
      "le",
      "a"
    ],
    [
      "pl",
      "ans</w>"
    ],
    [
      "w",
      "are</w>"
    ],
    [
      "deplo",
      "y"
    ],
    [
      "deploy",
      "ments</w>"
    ],
    [
      "հայտ",
      "ըն</w>"
    ],
    [
      "con",
      "tex"
    ],
    [
      "aliz",
      "ed</w>"
    ],
    [
      "wor",
      "d</w>"
    ],
    [
      "re",
      "prese"
    ],
    [
      "represe",
      "nta"
    ],
    [
      "representa",
      "tions</w>"
    ],
    [
      "M",
      "Q"
    ],
    [
      "gh",
      "t</w>"
    ],
    [
      "me",
      "ss"
    ],
    [
      "ag",
      "ing</w>"
    ],
    [
      "train",
      "ed</w>"
    ],
    [
      "t",
      "rea"
    ],
    [
      "trea",
      "ts</w>"
    ],
    [
      "compu",
      "tation</w>"
    ],
    [
      "func",
      "tions</w>"
    ],
    [
      "ղ",
      "ինին</w>"
    ],
    [
      "լայ",
      "նի</w>"
    ],
    [
      "sp",
      "e"
    ],
    [
      "spe",
      "ech"
    ],
    [
      "speech",
      "</w>"
    ],
    [
      "re",
      "d</w>"
    ],
    [
      "ship",
      "</w>"
    ],
    [
      "n",
      "at"
    ],
    [
      "o",
      "m"
    ],
    [
      "me",
      "tri"
    ],
    [
      "J",
      "ava"
    ],
    [
      "Java",
      "Script</w>"
    ],
    [
      "v",
      "ation</w>"
    ],
    [
      "diffe",
      "ren"
    ],
    [
      "differen",
      "ti"
    ],
    [
      "C",
      "ha"
    ],
    [
      "eng",
      "ine"
    ],
    [
      "engine",
      "e"
    ],
    [
      "enginee",
      "ring</w>"
    ],
    [
      "tion",
      "ally</w>"
    ],
    [
      "p",
      "ts</w>"
    ],
    [
      "res",
      "i"
    ],
    [
      "su",
      "b"
    ],
    [
      "se",
      "ts</w>"
    ],
    [
      "in",
      "cre"
    ],
    [
      "միվու",
      "րին</w>"
    ],
    [
      "HT",
      "M"
    ],
    [
      "HTM",
      "L</w>"
    ],
    [
      "ac",
      "cessibility</w>"
    ],
    [
      "S",
      "E"
    ],
    [
      "Fi",
      "rst</w>"
    ],
    [
      "con",
      "ten"
    ],
    [
      "conten",
      "t"
    ],
    [
      "content",
      "ful</w>"
    ],
    [
      "pa",
      "int</w>"
    ],
    [
      "rende",
      "ring</w>"
    ],
    [
      "տեղն",
      "կ"
    ],
    [
      "տեղնկ",
      "ական</w>"
    ],
    [
      "determin",
      "es</w>"
    ],
    [
      "en",
      "code</w>"
    ],
    [
      "v",
      "en"
    ],
    [
      "f",
      "ra"
    ],
    [
      "fra",
      "me"
    ],
    [
      "frame",
      "work</w>"
    ],
    [
      "visu",
      "aliz"
    ],
    [
      "visualiz",
      "es</w>"
    ],
    [
      "de",
      "livery</w>"
    ],
    [
      "պատվում",
      "</w>"
    ],
    [
      "ռ",
      "ջ"
    ],
    [
      "ույ",
      "ն</w>"
    ],
    [
      "մ",
      "ան</w>"
    ],
    [
      "contro",
      "l</w>"
    ],
    [
      "կ",
      "իրան</w>"
    ],
    [
      "l",
      "ing</w>"
    ],
    [
      "dis",
      "cover"
    ],
    [
      "discover",
      "s</w>"
    ],
    [
      "co",
      "l"
    ],
    [
      "col",
      "le"
    ],
    [
      "con",
      "sum"
    ],
    [
      "consum",
      "ption</w>"
    ],
    [
      "c",
      "lou"
    ],
    [
      "clou",
      "d</w>"
    ],
    [
      "impro",
      "ve</w>"
    ],
    [
      "sh",
      "</w>"
    ],
    [
      "balan",
      "ce</w>"
    ],
    [
      "c",
      "reate</w>"
    ],
    [
      "encry",
      "p"
    ],
    [
      "encryp",
      "ted</w>"
    ],
    [
      "t",
      "un"
    ],
    [
      "bli",
      "c</w>"
    ],
    [
      "ն",
      "տեր"
    ],
    [
      "նտեր",
      "նե"
    ],
    [
      "նտերնե",
      "տ"
    ],
    [
      "ավել",
      "ին</w>"
    ],
    [
      "ele",
      "ments</w>"
    ],
    [
      "աշ",
      "ին"
    ],
    [
      "ճովու",
      "րին</w>"
    ],
    [
      "P",
      "run"
    ],
    [
      "Prun",
      "ing</w>"
    ],
    [
      "un",
      "nec"
    ],
    [
      "unnec",
      "e"
    ],
    [
      "unnece",
      "ss"
    ],
    [
      "unnecess",
      "ary</w>"
    ],
    [
      "clas",
      "si"
    ],
    [
      "i",
      "nde"
    ],
    [
      "inde",
      "pend"
    ],
    [
      "re",
      "as"
    ],
    [
      "reas",
      "on"
    ],
    [
      "reason",
      "ing</w>"
    ],
    [
      "pro",
      "ble"
    ],
    [
      "proble",
      "ms</w>"
    ],
    [
      "G",
      "l"
    ],
    [
      "ac",
      "i"
    ],
    [
      "me",
      "th"
    ],
    [
      "meth",
      "o"
    ],
    [
      "bu",
      "s"
    ],
    [
      "bus",
      "ine"
    ],
    [
      "busine",
      "ss</w>"
    ],
    [
      "y",
      "po"
    ],
    [
      "at",
      "te"
    ],
    [
      "elec",
      "tri"
    ],
    [
      "ene",
      "rg"
    ],
    [
      "energ",
      "y</w>"
    ],
    [
      "ch",
      "em"
    ],
    [
      "Da",
      "ta</w>"
    ],
    [
      "trans",
      "mis"
    ],
    [
      "transmis",
      "sion</w>"
    ],
    [
      "requi",
      "re"
    ],
    [
      "require",
      "ments</w>"
    ],
    [
      "pl",
      "ac"
    ],
    [
      "ex",
      "a"
    ],
    [
      "nd",
      "ing</w>"
    ],
    [
      "c",
      "u"
    ],
    [
      "tr",
      "on</w>"
    ],
    [
      "ծ",
      "իր"
    ],
    [
      "ծիր",
      "ավ"
    ],
    [
      "ne",
      "ural</w>"
    ],
    [
      "networ",
      "k</w>"
    ],
    [
      "B",
      "i"
    ],
    [
      "Bi",
      "o"
    ],
    [
      "inter",
      "act</w>"
    ],
    [
      "bi",
      "o"
    ],
    [
      "appli",
      "ca"
    ],
    [
      "applica",
      "tions</w>"
    ],
    [
      "tr",
      "acks</w>"
    ],
    [
      "custo",
      "mer</w>"
    ],
    [
      "l",
      "ution</w>"
    ],
    [
      "ե",
      "բ"
    ],
    [
      "ma",
      "tical</w>"
    ],
    [
      "միսուվ",
      "ինին</w>"
    ],
    [
      "te",
      "nds</w>"
    ],
    [
      "proces",
      "sing</w>"
    ],
    [
      "te",
      "cts</w>"
    ],
    [
      "patter",
      "ns</w>"
    ],
    [
      "de",
      "n"
    ],
    [
      "conver",
      "sion</w>"
    ],
    [
      "d",
      "ro"
    ],
    [
      "ff",
      "s</w>"
    ],
    [
      "at",
      "tention</w>"
    ],
    [
      "f",
      "u"
    ],
    [
      "fu",
      "ture</w>"
    ],
    [
      "C",
      "ap"
    ],
    [
      "g",
      "ro"
    ],
    [
      "fo",
      "res"
    ],
    [
      "fores",
      "ts</w>"
    ],
    [
      "di",
      "ver"
    ],
    [
      "si",
      "ty</w>"
    ],
    [
      "car",
      "b"
    ],
    [
      "carb",
      "on</w>"
    ],
    [
      "էն",
      "ել"
    ],
    [
      "էնել",
      "</w>"
    ],
    [
      "A",
      "l"
    ],
    [
      "pro",
      "ce"
    ],
    [
      "l",
      "v"
    ],
    [
      "lv",
      "ing</w>"
    ],
    [
      "t",
      "ree</w>"
    ],
    [
      "th",
      "res"
    ],
    [
      "thres",
      "ho"
    ],
    [
      "thresho",
      "l"
    ],
    [
      "threshol",
      "ds</w>"
    ],
    [
      "T",
      "r"
    ],
    [
      "imp",
      "le"
    ],
    [
      "q",
      "ue"
    ],
    [
      "to",
      "co"
    ],
    [
      "toco",
      "l</w>"
    ],
    [
      "mode",
      "r"
    ],
    [
      "ob",
      "al</w>"
    ],
    [
      "Re",
      "tri"
    ],
    [
      "Retri",
      "eval</w>"
    ],
    [
      "au",
      "g"
    ],
    [
      "aug",
      "men"
    ],
    [
      "augmen",
      "ted</w>"
    ],
    [
      "retri",
      "eval</w>"
    ],
    [
      "P",
      "o"
    ],
    [
      "r",
      "api"
    ],
    [
      "rapi",
      "d</w>"
    ],
    [
      "s",
      "tic</w>"
    ],
    [
      "si",
      "de</w>"
    ],
    [
      "H",
      "y"
    ],
    [
      "gener",
      "ates</w>"
    ],
    [
      "G",
      "o</w>"
    ],
    [
      "ca",
      "ted</w>"
    ],
    [
      "h",
      "u"
    ],
    [
      "hu",
      "ma"
    ],
    [
      "acti",
      "vity</w>"
    ],
    [
      "cle",
      "ar</w>"
    ],
    [
      "the",
      "i"
    ],
    [
      "thei",
      "r</w>"
    ],
    [
      "G",
      "P"
    ],
    [
      "f",
      "t</w>"
    ],
    [
      "j",
      "u"
    ],
    [
      "sig",
      "ni"
    ],
    [
      "signi",
      "fi"
    ],
    [
      "signifi",
      "c"
    ],
    [
      "mo",
      "tional</w>"
    ],
    [
      "connec",
      "ts</w>"
    ],
    [
      "in",
      "gs</w>"
    ],
    [
      "mp",
      "t</w>"
    ],
    [
      "out",
      "pu"
    ],
    [
      "outpu",
      "ts</w>"
    ],
    [
      "F",
      "a"
    ],
    [
      "al",
      "lows</w>"
    ],
    [
      "cel",
      "ls</w>"
    ],
    [
      "ty",
      "p"
    ],
    [
      "me",
      "tabo"
    ],
    [
      "metabo",
      "li"
    ],
    [
      "organ",
      "is"
    ],
    [
      "organis",
      "ms</w>"
    ],
    [
      "B",
      "o"
    ],
    [
      "ճ",
      "վու"
    ],
    [
      "ն",
      "եր"
    ],
    [
      "ղ",
      "ին</w>"
    ],
    [
      "se",
      "t"
    ],
    [
      "set",
      "tings</w>"
    ],
    [
      "impro",
      "v"
    ],
    [
      "improv",
      "ement</w>"
    ],
    [
      "oper",
      "ations</w>"
    ],
    [
      "pri",
      "n"
    ],
    [
      "decom",
      "pose</w>"
    ],
    [
      "տ",
      "ությունի</w>"
    ],
    [
      "se",
      "qu"
    ],
    [
      "Mix",
      "ed</w>"
    ],
    [
      "integ",
      "er</w>"
    ],
    [
      "M",
      "ach"
    ],
    [
      "Mach",
      "ine</w>"
    ],
    [
      "ակ",
      "</w>"
    ],
    [
      "N",
      "E"
    ],
    [
      "NE",
      "T</w>"
    ],
    [
      "Su",
      "pply</w>"
    ],
    [
      "ch",
      "a"
    ],
    [
      "cha",
      "in</w>"
    ],
    [
      "ti",
      "cs</w>"
    ],
    [
      "tor",
      "y</w>"
    ],
    [
      "g",
      "raph"
    ],
    [
      "graph",
      "y</w>"
    ],
    [
      "b",
      "ra"
    ],
    [
      "bra",
      "in</w>"
    ],
    [
      "ին",
      "ինին</w>"
    ],
    [
      "հավաստ",
      "ներին</w>"
    ],
    [
      "add",
      "res"
    ],
    [
      "addres",
      "ses</w>"
    ],
    [
      "C",
      "</w>"
    ],
    [
      "sta",
      "nce</w>"
    ],
    [
      "differe",
      "nce</w>"
    ],
    [
      "բարաք",
      "ին</w>"
    ],
    [
      "e",
      "sta"
    ],
    [
      "esta",
      "bli"
    ],
    [
      "mo",
      "r"
    ],
    [
      "n",
      "g"
    ],
    [
      "l",
      "in"
    ],
    [
      "lin",
      "ks</w>"
    ],
    [
      "an",
      "t"
    ],
    [
      "ant",
      "um</w>"
    ],
    [
      "and",
      "o"
    ],
    [
      "ando",
      "m</w>"
    ],
    [
      "m",
      "un"
    ],
    [
      "Per",
      "formance</w>"
    ],
    [
      "r",
      "un</w>"
    ],
    [
      "la",
      "rge</w>"
    ],
    [
      "sa",
      "mp"
    ],
    [
      "u",
      "se</w>"
    ],
    [
      "ex",
      "ter"
    ],
    [
      "exter",
      "nal</w>"
    ],
    [
      "pro",
      "por"
    ],
    [
      "vari",
      "ate</w>"
    ],
    [
      "e",
      "ffec"
    ],
    [
      "effec",
      "ts</w>"
    ],
    [
      "di",
      "gital</w>"
    ],
    [
      "tic",
      "les</w>"
    ],
    [
      "ta",
      "ry</w>"
    ],
    [
      "fi",
      "t</w>"
    ],
    [
      "ec",
      "tor</w>"
    ],
    [
      "us",
      "ing</w>"
    ],
    [
      "em",
      "beddings</w>"
    ],
    [
      "auto",
      "ma"
    ],
    [
      "automa",
      "ti"
    ],
    [
      "automati",
      "cally</w>"
    ],
    [
      "ul",
      "ar</w>"
    ],
    [
      "re",
      "sp"
    ],
    [
      "mach",
      "ine</w>"
    ],
    [
      "balan",
      "ced</w>"
    ],
    [
      "g",
      "rou"
    ],
    [
      "grou",
      "ps</w>"
    ],
    [
      "gradi",
      "ent</w>"
    ],
    [
      "ե",
      "մատ"
    ],
    [
      "եմատ",
      "ի"
    ],
    [
      "եմատի",
      "կան</w>"
    ],
    [
      "su",
      "per"
    ],
    [
      "labe",
      "led</w>"
    ],
    [
      "n",
      "e</w>"
    ],
    [
      "con",
      "tent</w>"
    ],
    [
      "ser",
      "va"
    ],
    [
      "serva",
      "bility</w>"
    ],
    [
      "in",
      "sig"
    ],
    [
      "insig",
      "h"
    ],
    [
      "inter",
      "nal</w>"
    ],
    [
      "se",
      "le"
    ],
    [
      "sele",
      "cts</w>"
    ],
    [
      "ti",
      "vely</w>"
    ],
    [
      "outcom",
      "e</w>"
    ],
    [
      "bili",
      "ties</w>"
    ],
    [
      "e",
      "ach"
    ],
    [
      "be",
      "st</w>"
    ],
    [
      "ri",
      "cul"
    ],
    [
      "gradi",
      "ents</w>"
    ],
    [
      "posi",
      "tion</w>"
    ],
    [
      "g",
      "ar"
    ],
    [
      "comple",
      "te</w>"
    ],
    [
      "ta",
      "sk"
    ],
    [
      "task",
      "s</w>"
    ],
    [
      "ծ",
      "ու"
    ],
    [
      "ծու",
      "ց"
    ],
    [
      "reli",
      "ability</w>"
    ],
    [
      "p",
      "sy"
    ],
    [
      "psy",
      "ch"
    ],
    [
      "psych",
      "ology</w>"
    ],
    [
      "ությու",
      "ն"
    ],
    [
      "S",
      "k"
    ],
    [
      "Sk",
      "ip</w>"
    ],
    [
      "hel",
      "p</w>"
    ],
    [
      "d",
      "ri"
    ],
    [
      "as",
      "y"
    ],
    [
      "asy",
      "nchrono"
    ],
    [
      "al",
      "gorith"
    ],
    [
      "algorith",
      "m</w>"
    ],
    [
      "defin",
      "es</w>"
    ],
    [
      "in",
      "struction</w>"
    ],
    [
      "tr",
      "acing</w>"
    ],
    [
      "sc",
      "rip"
    ],
    [
      "main",
      "ta"
    ],
    [
      "mainta",
      "in"
    ],
    [
      "posi",
      "tives</w>"
    ],
    [
      "P",
      "e"
    ],
    [
      "effici",
      "ency</w>"
    ],
    [
      "f",
      "requ"
    ],
    [
      "me",
      "ets</w>"
    ],
    [
      "Co",
      "de</w>"
    ],
    [
      "re",
      "search</w>"
    ],
    [
      "fi",
      "c</w>"
    ],
    [
      "cen",
      "tr"
    ],
    [
      "d",
      "ing</w>"
    ],
    [
      "fi",
      "ed</w>"
    ],
    [
      "T",
      "P</w>"
    ],
    [
      "C",
      "ross</w>"
    ],
    [
      "a",
      "ble</w>"
    ],
    [
      "e",
      "s"
    ],
    [
      "mo",
      "d"
    ],
    [
      "w",
      "he"
    ],
    [
      "whe",
      "ther</w>"
    ],
    [
      "e",
      "con"
    ],
    [
      "AP",
      "I"
    ],
    [
      "API",
      "s</w>"
    ],
    [
      "նվ",
      "ի"
    ],
    [
      "նվի",
      "գ"
    ],
    [
      "նվիգ",
      "ային</w>"
    ],
    [
      "con",
      "si"
    ],
    [
      "consi",
      "ste"
    ],
    [
      "da",
      "ta"
    ],
    [
      "data",
      "base</w>"
    ],
    [
      "func",
      "tion"
    ],
    [
      "function",
      "ality</w>"
    ],
    [
      "simul",
      "ta"
    ],
    [
      "simulta",
      "ne"
    ],
    [
      "simultane",
      "ou"
    ],
    [
      "simultaneou",
      "s"
    ],
    [
      "simultaneous",
      "ly</w>"
    ],
    [
      "op",
      "en</w>"
    ],
    [
      "fetch",
      "</w>"
    ],
    [
      "ra",
      "i"
    ],
    [
      "rai",
      "se</w>"
    ],
    [
      "Val",
      "ue"
    ],
    [
      "Value",
      "Error</w>"
    ],
    [
      "mis",
      "sing</w>"
    ],
    [
      "sum",
      "</w>"
    ],
    [
      "pri",
      "ce</w>"
    ],
    [
      "st",
      "rip"
    ],
    [
      "strip",
      "</w>"
    ],
    [
      "lo",
      "wer</w>"
    ],
    [
      "j",
      "o"
    ],
    [
      "jo",
      "in</w>"
    ],
    [
      "de",
      "bug</w>"
    ],
    [
      "F",
      "alse</w>"
    ],
    [
      "nee",
      "d</w>"
    ],
    [
      "ap",
      "p</w>"
    ],
    [
      "ver",
      "sion</w>"
    ],
    [
      "num",
      "py</w>"
    ],
    [
      "8",
      "0"
    ],
    [
      "80",
      "80</w>"
    ],
    [
      "ho",
      "st</w>"
    ],
    [
      "work",
      "ers</w>"
    ],
    [
      "21",
      "2</w>"
    ],
    [
      "21",
      "3</w>"
    ],
    [
      "21",
      "4</w>"
    ],
    [
      "21",
      "5</w>"
    ],
    [
      "21",
      "6</w>"
    ],
    [
      "21",
      "9</w>"
    ],
    [
      "2",
      "20</w>"
    ],
    [
      "2",
      "22</w>"
    ],
    [
      "2",
      "23</w>"
    ],
    [
      "2",
      "26</w>"
    ],
    [
      "2",
      "27</w>"
    ],
    [
      "2",
      "29</w>"
    ],
    [
      "2",
      "30</w>"
    ],
    [
      "2",
      "32</w>"
    ],
    [
      "2",
      "33</w>"
    ],
    [
      "2",
      "34</w>"
    ],
    [
      "2",
      "36</w>"
    ],
    [
      "2",
      "37</w>"
    ],
    [
      "2",
      "39</w>"
    ],
    [
      "2",
      "40</w>"
    ],
    [
      "2",
      "41</w>"
    ],
    [
      "2",
      "43</w>"
    ],
    [
      "2",
      "44</w>"
    ],
    [
      "2",
      "45</w>"
    ],
    [
      "2",
      "47</w>"
    ],
    [
      "2",
      "48</w>"
    ],
    [
      "2",
      "50</w>"
    ],
    [
      "2",
      "51</w>"
    ],
    [
      "2",
      "52</w>"
    ],
    [
      "2",
      "54</w>"
    ],
    [
      "2",
      "55</w>"
    ],
    [
      "2",
      "57</w>"
    ],
    [
      "2",
      "58</w>"
    ],
    [
      "2",
      "61</w>"
    ],
    [
      "2",
      "62</w>"
    ],
    [
      "2",
      "64</w>"
    ],
    [
      "2",
      "65</w>"
    ],
    [
      "2",
      "68</w>"
    ],
    [
      "2",
      "69</w>"
    ],
    [
      "2",
      "70</w>"
    ],
    [
      "2",
      "71</w>"
    ],
    [
      "2",
      "72</w>"
    ],
    [
      "2",
      "75</w>"
    ],
    [
      "2",
      "76</w>"
    ],
    [
      "2",
      "77</w>"
    ],
    [
      "2",
      "78</w>"
    ],
    [
      "2",
      "79</w>"
    ],
    [
      "28",
      "2</w>"
    ],
    [
      "28",
      "3</w>"
    ],
    [
      "28",
      "5</w>"
    ],
    [
      "28",
      "6</w>"
    ],
    [
      "28",
      "9</w>"
    ],
    [
      "2",
      "90</w>"
    ],
    [
      "2",
      "92</w>"
    ],
    [
      "2",
      "93</w>"
    ],
    [
      "2",
      "95</w>"
    ],
    [
      "2",
      "96</w>"
    ],
    [
      "2",
      "97</w>"
    ],
    [
      "2",
      "99</w>"
    ],
    [
      "30",
      "0</w>"
    ],
    [
      "30",
      "2</w>"
    ],
    [
      "30",
      "3</w>"
    ],
    [
      "30",
      "4</w>"
    ],
    [
      "30",
      "6</w>"
    ],
    [
      "30",
      "7</w>"
    ],
    [
      "30",
      "8</w>"
    ],
    [
      "3",
      "10</w>"
    ],
    [
      "3",
      "11</w>"
    ],
    [
      "3",
      "13</w>"
    ],
    [
      "3",
      "14</w>"
    ],
    [
      "3",
      "15</w>"
    ],
    [
      "3",
      "17</w>"
    ],
    [
      "3",
      "18</w>"
    ],
    [
      "32",
      "0</w>"
    ],
    [
      "32",
      "1</w>"
    ],
    [
      "3",
      "24</w>"
    ],
    [
      "32",
      "5</w>"
    ],
    [
      "32",
      "7</w>"
    ],
    [
      "32",
      "8</w>"
    ],
    [
      "3",
      "31</w>"
    ],
    [
      "3",
      "32</w>"
    ],
    [
      "3",
      "33</w>"
    ],
    [
      "3",
      "34</w>"
    ],
    [
      "3",
      "35</w>"
    ],
    [
      "3",
      "38</w>"
    ],
    [
      "3",
      "39</w>"
    ],
    [
      "3",
      "40</w>"
    ],
    [
      "3",
      "41</w>"
    ],
    [
      "3",
      "42</w>"
    ],
    [
      "3",
      "45</w>"
    ],
    [
      "3",
      "46</w>"
    ],
    [
      "3",
      "48</w>"
    ],
    [
      "3",
      "49</w>"
    ],
    [
      "3",
      "52</w>"
    ],
    [
      "3",
      "53</w>"
    ],
    [
      "3",
      "55</w>"
    ],
    [
      "3",
      "56</w>"
    ],
    [
      "3",
      "58</w>"
    ],
    [
      "3",
      "59</w>"
    ],
    [
      "3",
      "60</w>"
    ],
    [
      "3",
      "62</w>"
    ],
    [
      "3",
      "63</w>"
    ],
    [
      "3",
      "65</w>"
    ],
    [
      "3",
      "66</w>"
    ],
    [
      "3",
      "67</w>"
    ],
    [
      "3",
      "69</w>"
    ],
    [
      "3",
      "70</w>"
    ],
    [
      "3",
      "71</w>"
    ],
    [
      "3",
      "73</w>"
    ],
    [
      "3",
      "74</w>"
    ],
    [
      "3",
      "76</w>"
    ],
    [
      "3",
      "77</w>"
    ],
    [
      "3",
      "78</w>"
    ],
    [
      "38",
      "0</w>"
    ],
    [
      "38",
      "1</w>"
    ],
    [
      "38",
      "3</w>"
    ],
    [
      "38",
      "4</w>"
    ],
    [
      "38",
      "7</w>"
    ],
    [
      "38",
      "8</w>"
    ],
    [
      "3",
      "90</w>"
    ],
    [
      "3",
      "91</w>"
    ],
    [
      "3",
      "94</w>"
    ],
    [
      "3",
      "95</w>"
    ],
    [
      "3",
      "96</w>"
    ],
    [
      "3",
      "97</w>"
    ],
    [
      "3",
      "98</w>"
    ],
    [
      "4",
      "14</w>"
    ],
    [
      "4",
      "42</w>"
    ],
    [
      "4",
      "56</w>"
    ],
    [
      "4",
      "77</w>"
    ],
    [
      "5",
      "05</w>"
    ],
    [
      "5",
      "19</w>"
    ],
    [
      "5",
      "40</w>"
    ],
    [
      "5",
      "68</w>"
    ],
    [
      "5",
      "82</w>"
    ],
    [
      "6",
      "0"
    ],
    [
      "60",
      "3</w>"
    ],
    [
      "6",
      "31</w>"
    ],
    [
      "6",
      "45</w>"
    ],
    [
      "6",
      "66</w>"
    ],
    [
      "6",
      "94</w>"
    ],
    [
      "70",
      "8</w>"
    ],
    [
      "7",
      "29</w>"
    ],
    [
      "7",
      "57</w>"
    ],
    [
      "7",
      "71</w>"
    ],
    [
      "7",
      "92</w>"
    ],
    [
      "8",
      "20</w>"
    ],
    [
      "8",
      "34</w>"
    ],
    [
      "8",
      "55</w>"
    ],
    [
      "8",
      "83</w>"
    ],
    [
      "8",
      "97</w>"
    ],
    [
      "9",
      "18</w>"
    ],
    [
      "9",
      "46</w>"
    ],
    [
      "9",
      "60</w>"
    ],
    [
      "9",
      "81</w>"
    ],
    [
      "10",
      "09</w>"
    ],
    [
      "10",
      "23</w>"
    ],
    [
      "10",
      "44</w>"
    ],
    [
      "10",
      "72</w>"
    ],
    [
      "10",
      "86</w>"
    ],
    [
      "1",
      "107</w>"
    ],
    [
      "1",
      "135</w>"
    ],
    [
      "1",
      "149</w>"
    ],
    [
      "1",
      "170</w>"
    ],
    [
      "1",
      "198</w>"
    ],
    [
      "12",
      "12</w>"
    ],
    [
      "12",
      "33</w>"
    ],
    [
      "12",
      "61</w>"
    ],
    [
      "12",
      "75</w>"
    ],
    [
      "12",
      "96</w>"
    ],
    [
      "13",
      "24</w>"
    ],
    [
      "13",
      "38</w>"
    ],
    [
      "13",
      "59</w>"
    ],
    [
      "13",
      "87</w>"
    ],
    [
      "140",
      "1</w>"
    ],
    [
      "14",
      "22</w>"
    ],
    [
      "14",
      "50</w>"
    ],
    [
      "14",
      "64</w>"
    ],
    [
      "14",
      "85</w>"
    ],
    [
      "15",
      "13</w>"
    ],
    [
      "15",
      "27</w>"
    ],
    [
      "15",
      "48</w>"
    ],
    [
      "15",
      "76</w>"
    ],
    [
      "15",
      "90</w>"
    ],
    [
      "16",
      "11</w>"
    ],
    [
      "16",
      "39</w>"
    ],
    [
      "16",
      "53</w>"
    ],
    [
      "16",
      "74</w>"
    ],
    [
      "17",
      "02</w>"
    ],
    [
      "17",
      "16</w>"
    ],
    [
      "17",
      "37</w>"
    ],
    [
      "17",
      "65</w>"
    ],
    [
      "17",
      "79</w>"
    ],
    [
      "18",
      "0"
    ],
    [
      "180",
      "0</w>"
    ],
    [
      "18",
      "28</w>"
    ],
    [
      "18",
      "42</w>"
    ],
    [
      "18",
      "63</w>"
    ],
    [
      "18",
      "91</w>"
    ],
    [
      "19",
      "05</w>"
    ],
    [
      "19",
      "26</w>"
    ],
    [
      "19",
      "54</w>"
    ],
    [
      "19",
      "68</w>"
    ],
    [
      "19",
      "89</w>"
    ],
    [
      "20",
      "17</w>"
    ],
    [
      "20",
      "31</w>"
    ],
    [
      "20",
      "52</w>"
    ],
    [
      "20",
      "80</w>"
    ],
    [
      "20",
      "94</w>"
    ],
    [
      "4",
      "17</w>"
    ],
    [
      "4",
      "31</w>"
    ],
    [
      "40",
      "6</w>"
    ],
    [
      "4",
      "27</w>"
    ],
    [
      "4",
      "55</w>"
    ],
    [
      "4",
      "69</w>"
    ],
    [
      "4",
      "90</w>"
    ],
    [
      "5",
      "18</w>"
    ],
    [
      "5",
      "32</w>"
    ],
    [
      "uni",
      "ver"
    ],
    [
      "univer",
      "s"
    ],
    [
      "univers",
      "al</w>"
    ],
    [
      "O",
      "S"
    ],
    [
      "OS",
      "P"
    ],
    [
      "OSP",
      "F"
    ],
    [
      "OSPF",
      "</w>"
    ],
    [
      "sh",
      "or"
    ],
    [
      "shor",
      "test</w>"
    ],
    [
      "pa",
      "th"
    ],
    [
      "path",
      "s</w>"
    ],
    [
      "with",
      "in</w>"
    ],
    [
      "s",
      "ing"
    ],
    [
      "sing",
      "le</w>"
    ],
    [
      "autonomo",
      "us</w>"
    ],
    [
      "G",
      "ra"
    ],
    [
      "Gra",
      "di"
    ],
    [
      "Gradi",
      "ent</w>"
    ],
    [
      "mach",
      "ines</w>"
    ],
    [
      "minimiz",
      "e</w>"
    ],
    [
      "Re",
      "mo"
    ],
    [
      "Remo",
      "te</w>"
    ],
    [
      "se",
      "n"
    ],
    [
      "sen",
      "sing</w>"
    ],
    [
      "E",
      "ar"
    ],
    [
      "Ear",
      "th</w>"
    ],
    [
      "sa",
      "te"
    ],
    [
      "sate",
      "lli"
    ],
    [
      "satelli",
      "te</w>"
    ],
    [
      "platfor",
      "ms</w>"
    ],
    [
      "V",
      "er"
    ],
    [
      "Ver",
      "tical</w>"
    ],
    [
      "g",
      "rows</w>"
    ],
    [
      "cro",
      "ps</w>"
    ],
    [
      "sta",
      "c"
    ],
    [
      "stac",
      "ke"
    ],
    [
      "stacke",
      "d</w>"
    ],
    [
      "ind",
      "o"
    ],
    [
      "indo",
      "or</w>"
    ],
    [
      "այու",
      "ռ"
    ],
    [
      "այուռ",
      "ատ"
    ],
    [
      "այուռատ",
      "ին</w>"
    ],
    [
      "bloc",
      "king</w>"
    ],
    [
      "th",
      "read</w>"
    ],
    [
      "ava",
      "i"
    ],
    [
      "avai",
      "la"
    ],
    [
      "availa",
      "bility</w>"
    ],
    [
      "A",
      "r"
    ],
    [
      "Ar",
      "ch"
    ],
    [
      "Arch",
      "itecture</w>"
    ],
    [
      "re",
      "cor"
    ],
    [
      "recor",
      "ds</w>"
    ],
    [
      "c",
      "ap"
    ],
    [
      "cap",
      "ture</w>"
    ],
    [
      "deci",
      "sions</w>"
    ],
    [
      "En",
      "viron"
    ],
    [
      "Environ",
      "mental</w>"
    ],
    [
      "su",
      "stain"
    ],
    [
      "sustain",
      "ability</w>"
    ],
    [
      "eco",
      "logical</w>"
    ],
    [
      "foot",
      "print</w>"
    ],
    [
      "D",
      "e"
    ],
    [
      "De",
      "livery</w>"
    ],
    [
      "trans",
      "port</w>"
    ],
    [
      "go",
      "o"
    ],
    [
      "goo",
      "ds</w>"
    ],
    [
      "autonomo",
      "usly</w>"
    ],
    [
      "S",
      "o"
    ],
    [
      "So",
      "cial</w>"
    ],
    [
      "medi",
      "a</w>"
    ],
    [
      "ma",
      "r"
    ],
    [
      "mar",
      "ke"
    ],
    [
      "marke",
      "ting</w>"
    ],
    [
      "eng",
      "ages</w>"
    ],
    [
      "audi",
      "ences</w>"
    ],
    [
      "on",
      "line</w>"
    ],
    [
      "Re",
      "lea"
    ],
    [
      "Relea",
      "se</w>"
    ],
    [
      "so",
      "f"
    ],
    [
      "sof",
      "t"
    ],
    [
      "soft",
      "ware</w>"
    ],
    [
      "ո",
      "ռ"
    ],
    [
      "ոռ",
      "ու"
    ],
    [
      "ոռու",
      "ս"
    ],
    [
      "ոռուս",
      "ությունին</w>"
    ],
    [
      "միսուվ",
      "ելին</w>"
    ],
    [
      "ատ",
      "ի"
    ],
    [
      "ատի",
      "ս"
    ],
    [
      "ատիս",
      "ին</w>"
    ],
    [
      "ճովու",
      "ր</w>"
    ],
    [
      "E",
      "L"
    ],
    [
      "EL",
      "M"
    ],
    [
      "ELM",
      "o</w>"
    ],
    [
      "contex",
      "tu"
    ],
    [
      "contextu",
      "alized</w>"
    ],
    [
      "MQ",
      "T"
    ],
    [
      "MQT",
      "T</w>"
    ],
    [
      "ligh",
      "twe"
    ],
    [
      "lightwe",
      "i"
    ],
    [
      "lightwei",
      "ght</w>"
    ],
    [
      "mess",
      "aging</w>"
    ],
    [
      "con",
      "s"
    ],
    [
      "cons",
      "trained</w>"
    ],
    [
      "F",
      "unc"
    ],
    [
      "Func",
      "tional</w>"
    ],
    [
      "evalu",
      "ation</w>"
    ],
    [
      "վու",
      "ղինին</w>"
    ],
    [
      "T",
      "ex"
    ],
    [
      "Tex",
      "t</w>"
    ],
    [
      "sy",
      "n"
    ],
    [
      "syn",
      "the"
    ],
    [
      "synthe",
      "si"
    ],
    [
      "synthesi",
      "s</w>"
    ],
    [
      "wri",
      "t"
    ],
    [
      "writ",
      "te"
    ],
    [
      "writte",
      "n</w>"
    ],
    [
      "s",
      "po"
    ],
    [
      "spo",
      "ken</w>"
    ],
    [
      "audi",
      "o</w>"
    ],
    [
      "S",
      "im"
    ],
    [
      "Sim",
      "on</w>"
    ],
    [
      "S",
      "ine"
    ],
    [
      "Sine",
      "k</w>"
    ],
    [
      "ex",
      "plo"
    ],
    [
      "explo",
      "red</w>"
    ],
    [
      "lea",
      "de"
    ],
    [
      "leade",
      "r"
    ],
    [
      "leader",
      "ship</w>"
    ],
    [
      "p",
      "ur"
    ],
    [
      "pur",
      "pose</w>"
    ],
    [
      "N",
      "orma"
    ],
    [
      "Norma",
      "l</w>"
    ],
    [
      "man",
      "y</w>"
    ],
    [
      "nat",
      "ural</w>"
    ],
    [
      "ph",
      "en"
    ],
    [
      "phen",
      "om"
    ],
    [
      "phenom",
      "ena"
    ],
    [
      "phenomena",
      "</w>"
    ],
    [
      "sy",
      "m"
    ],
    [
      "sym",
      "metri"
    ],
    [
      "symmetri",
      "cally</w>"
    ],
    [
      "N",
      "o"
    ],
    [
      "No",
      "de</w>"
    ],
    [
      "j",
      "s</w>"
    ],
    [
      "Val",
      "ue</w>"
    ],
[...]
